mu 10673536
ko 5953609
ku 4552484
muri 3314835
na 3129278
wa 2924795
ya 2629306
ngo 2024047
ari 1917573
kandi 1593214
ni 1580305
no 1534209
kuri 1514740
yo 1362101
Rwanda 1334178
kuko 1204437
aho 1161154
ndetse 1129610
ariko 1092223
we 977648
uyu 976846
cya 852620
cyane 839665
yari 820279
gihe 817003
kuba 772017
hari 770901
uko 758179
cyangwa 749295
Mu 738824
bari 704810
avuga 697378
abantu 692281
kugira 691365
, 675984
nyuma 668561
ka 660078
ibyo 645553
mbere 643973
y’@@ 642011
nta 634990
iyo 632150
i 622846
n'@@ 620558
n’@@ 602023
iyi 584447
ati 580086
iki 578460
icyo 561759
ubu 543473
buryo 535191
wo 532597
za 518210
. 511158
(@@ 507140
Perezida 500760
ubwo 492491
bo 492039
ba 486236
akaba 485640
u 475521
rya 466770
“@@ 457702
cyo 457371
neza 456006
y'@@ 451544
igihe 448768
aba 444022
byo 439636
bwa 438440
w’@@ 435409
yavuze 433552
bwo 427809
buri 408316
Imana 407798
umuntu 399494
kubera 396203
n@@ 394406
ar@@ 381228
iri 376879
Leta 367513
uwo 363390
mwaka 362235
B@@ 359047
gukora 357603
imbere 357535
gihugu 355737
bya 355141
w@@ 351365
cy’@@ 348431
tariki 347295
Ni 345258
z@@ 335677
gusa 335113
rwa 330479
benshi 329331
ir@@ 326623
bar@@ 325199
at@@ 324575
: 322343
by’@@ 318629
umwe 316733
ak@@ 311833
afite 309623
Uyu 306433
abana 304997
Kigali 304496
munsi 302561
rwego 301730
ry’@@ 299533
ye 298445
imyaka 298096
abo 296699
"@@ 296433
wari 296428
abaturage 295618
abandi 293881
by@@ 292236
kugeza 290554
‘@@ 289881
z’@@ 288877
ibi 286175
r@@ 283325
nka 283307
zo 281527
ur@@ 280277
k@@ 279810
w'@@ 279522
amafaranga 274822
an@@ 274522
nk’@@ 274444
uburyo 274025
h@@ 273778
ikipe 272833
bw’@@ 272164
y@@ 271906
maze 271304
Kagame 270524
it@@ 270513
cy@@ 268923
iz@@ 266190
byose 265120
ag@@ 264930
yar@@ 264678
bose 264659
bafite 264531
bak@@ 263421
bat@@ 263143
N@@ 261445
ahubwo 260404
m@@ 259742
bamwe 259425
uk@@ 256489
Muri 256437
a, 255738
az@@ 255254
ik@@ 254839
se 253747
@@ 253526
kuva 253078
gahunda 252813
tw@@ 251975
y’u 251243
nawe 248616
ut@@ 246784
K@@ 246638
rwo 246472
Minisitiri 245448
Ku 243766
bw@@ 242225
M@@ 241939
ah@@ 241241
hagati 239753
ibintu 236441
ig@@ 234477
a. 233809
b@@ 233145
a 232875
rw’@@ 232652
niba 229798
karere 227770
Rayon 223652
harimo 223447
Polisi 222098
FC 221217
) 220758
Ibi 220487
rero 218433
hamwe 217675
yagize 217544
im@@ 217287
bag@@ 216842
rw@@ 214979
am@@ 214706
ab@@ 213910
ikibazo 212636
bikorwa 211874
ug@@ 211793
nt@@ 211211
,@@ 209919
is@@ 209830
Yagize 209663
Rwanda, 209226
Nyuma 207755
kujya 207714
Y@@ 207499
kwa 207495
ibikorwa 206946
bavuga 206839
amakuru 205927
kubona 204852
S@@ 204021
Umuyobozi 203527
hano 201846
kimwe 201815
baba 201652
uri 201151
umwana 198959
e, 197942
uz@@ 197706
baz@@ 197079
2 196742
agira 195654
byinshi 194649
Jenoside 193194
aya 192619
Afurika 192162
cy'@@ 190264
Ati 190079
igihugu 188665
ayo 188382
s@@ 187850
T@@ 186541
ufite 186234
Share 185813
b’@@ 185364
e 184638
H@@ 184558
Sports 184439
wese 183535
in@@ 182863
ntabwo 182438
bit@@ 182217
e. 182062
miliyoni 181878
umugore 181047
naho 180930
Jean 180593
ay@@ 180122
inama 179994
bakaba 178498
amaze 178064
be 178059
isi 178036
as@@ 177795
G@@ 177388
kabiri 175499
R@@ 174800
bir@@ 173593
ubuzima 172644
ib@@ 171486
ana 170492
o 168784
aga 168191
bihugu 167926
t@@ 166842
kub@@ 166483
by'@@ 166158
kur@@ 165300
3 164820
ifite 164188
hafi 163166
er@@ 162993
o, 162678
Iyo 162553
gutanga 161643
bagiye 160924
ibibazo 160894
bah@@ 160486
nk@@ 160194
bityo 160003
i, 159961
Rwanda. 159462
uruhare 159363
yose 158607
atari 158495
Iyi 158457
kuz@@ 158180
z'@@ 158030
ry'@@ 157937
D@@ 157902
bamaze 157091
- 156808
um@@ 156248
umugabo 155996
myaka 155360
g@@ 154925
yatangaje 154866
W@@ 154847
ura 154705
Uganda 154024
-@@ 153249
i@@ 152593
nk’uko 152558
ryo 152277
ih@@ 152193
iminsi 152137
kuwa 152066
indirimbo 151547
Kuri 150545
yaba 150394
mpamvu 150188
mw@@ 149527
nk'@@ 149422
hanze 148968
barimo 148888
izi 148562
aka 148418
uh@@ 148167
iy@@ 147654
Karere 147205
saa 146912
kw@@ 146847
nd@@ 146534
or@@ 146272
muntu 146184
ati: 145970
nibwo 145913
bikaba 144394
; 144223
akazi 143380
mukino 143266
o. 142935
/ 142924
yabo 142065
ashobora 141991
ing@@ 141815
ub@@ 141762
10 141706
I 141561
bik@@ 141372
Hari 140947
uw@@ 140816
APR 139782
ikaba 139411
ad@@ 138628
Yehova 138484
bw'@@ 138304
kibazo 138227
Yesu 137785
impamvu 137452
usanga 137127
si 136190
mukuru 135021
5 134947
kuy@@ 134919
nabo 134882
kumenya 134783
big@@ 134253
witwa 133332
byari 133160
e@@ 133157
umutekano 133114
imwe 133089
" 132773
era 132485
bantu 132231
umuyobozi 131536
Paul 131334
izina 131126
minsi 131036
A@@ 130926
bas@@ 130813
4 130442
kug@@ 130374
ivuga 130236
i. 129966
umwaka 129961
bitewe 129842
undi 129387
aza 129376
us@@ 129300
ira 128875
a@@ 128285
umwanya 127939
nama 127875
L@@ 127572
kugera 127155
umuryango 126655
1 126629
aha 126078
ish@@ 126065
nubwo 125910
ushinzwe 125426
war@@ 125153
nkuru 125152
C@@ 124740
o@@ 124692
Ariko 124633
ang@@ 124572
agiye 124148
Dr 123947
rimwe 123518
bitandukanye 122940
yakorewe 121933
kurwanya 121539
kugirango 121518
k’@@ 121452
d@@ 121296
uru 121154
ibihumbi 121014
muryango 120563
we, 120292
agaciro 120152
izo 119603
mwanya 119568
yaje 119433
ng@@ 118931
P@@ 118536
gufata 117934
Amerika 117702
id@@ 117380
bab@@ 117276
iza 116861
Abanyarwanda 116768
birimo 116686
bijyanye 116326
Ubwo 115845
imbaraga 115564
gukomeza 115499
buzima 115213
umukino 115099
anga 115093
rw'@@ 114770
abayobozi 114735
ry@@ 114588
Minisiteri 114578
ho 114437
ibyaha 114331
n’abandi 113657
yag@@ 113595
Ibyo 113524
bituma 113430
ire 113345
F@@ 113332
gushaka 113138
em@@ 113051
yabwiye 113039
bam@@ 112932
ubuyobozi 112813
aba@@ 112695
umunsi 112234
abakinnyi 112224
tur@@ 112173
mujyi 111822
kiganiro 111283
c@@ 111263
amategeko 111118
ic@@ 110943
l@@ 110786
ind@@ 110644
kuvuga 110252
akora 109953
we. 109912
wa. 109688
biri 109674
y’uko 109523
dore 109517
.@@ 109515
), 109491
iye 109164
b'@@ 108530
guh@@ 108162
abagore 107983
rusange 107951
20 107739
inyuma 107536
nyinshi 107302
biz@@ 107245
mugabo 107240
a.” 106860
’ 106705
cyumweru 106442
inda 106338
2016 106043
yah@@ 106015
ako 105739
bimwe 105668
y'u 105656
gukoresha 105504
0 105339
gushyira 105324
leta 105029
yagiye 104812
anye 104652
ban@@ 104304
6 104173
I@@ 103769
ndirimbo 103730
yab@@ 103659
bakora 103481
amahirwe 103253
Burundi 103079
nayo 102917
kipe 102801
un@@ 102776
wa, 102661
om@@ 102579
kwezi 102436
murenge 102335
7 102162
bagenzi 102139
uburenganzira 102076
bur@@ 101964
al@@ 101895
en@@ 101866
n’ 101821
babo 101753
? 101594
ahantu 101439
Kanda 101300
yam@@ 101061
gut@@ 100883
on@@ 100537
u@@ 100179
iwe 100140
ba@@ 100120
disclaimer 100034
ijambo 99984
uka 99853
byiza 99784
amo 99733
nkuko 99639
uye 99355
gutera 99230
any@@ 99202
kubaka 99148
U@@ 99030
agomba 98931
indi 98891
imirimo 98648
icyaha 98472
umukobwa 98429
ubutumwa 98350
15 98224
a,@@ 97972
abakozi 97962
ane 97617
gus@@ 97609
abanyarwanda 97604
kumwe 97594
asaba 97563
kwirinda 97551
and@@ 97236
at 97189
ashaka 97032
iya 97013
U 96909
kongera 96435
kum@@ 96173
). 96076
bagomba 96076
s 95997
icy@@ 95846
yombi 95709
bishobora 95502
de 95485
abat@@ 95407
gufasha 95302
yahise 95171
zose 95075
Email 94178
uza 94102
uba 93934
none 93885
Aba 93436
ibindi 93405
irwa 92964
ine 92744
yak@@ 92631
” 92572
rugo 92495
8 92362
gikorwa 92182
imikino 92087
muk@@ 92035
amasezerano 92017
2017 91663
ajya 91303
Repubulika 91225
ung@@ 91011
bih@@ 90871
itsinda 90635
ubushobozi 90510
abona 90342
bay@@ 90262
isha 90130
p@@ 90114
’@@ 90099
Abatutsi 89974
yatangiye 89837
ny@@ 89831
nko 89702
w’imyaka 89642
amazi 89477
J@@ 89381
ere 89355
yabaye 89266
yakoze 88550
Gusa 88488
akomeza 88375
on 88214
iterambere 88179
azi 88047
bashobora 87774
ana, 87687
Icyo 87538
30 87492
abar@@ 87338
kigo 87338
imodoka 87295
kumva 86967
umusaruro 86883
nabi 86601
but@@ 86525
Iki 86518
iby@@ 86458
indwara 86323
gatatu 86320
shampiyona 86199
guteza 86103
itariki 86068
ubundi 86063
iryo 86011
| 85975
mpuzamahanga 85957
ikintu 85909
baturage 85906
kurusha 85895
5@@ 85892
imaze 85801
3@@ 85763
n’uko 85755
O@@ 85655
cyane. 85655
ash@@ 85580
nuko 85513
yat@@ 85508
12 85316
E@@ 85228
cyose 85218
4@@ 85108
ababyeyi 84799
ntacyo 84786
mikino 84696
Inkuru 84597
Facebook 84444
inkunga 84400
ingaruka 84313
urubyiruko 84208
Amakuru 83991
iba 83977
Z@@ 83841
Miss 83802
kir@@ 83593
abah@@ 83515
menshi 83493
V@@ 83472
ze 83448
ubona 83383
ize 83351
tuz@@ 83005
niyo 82918
ora 82789
bwe 82787
ibihugu 82679
isoko 82649
yakomeje 82623
yasabye 82425
eg@@ 82219
inzu 82218
haba 82106
Ubu 82026
ac@@ 81885
babiri 81877
biba 81636
kut@@ 81582
ara 81150
mur@@ 81110
ud@@ 81057
amagambo 80986
6@@ 80892
n’ibindi 80885
in 80880
Nd@@ 80801
uy@@ 80763
ana. 80587
ushobora 80586
Umunyamabanga 80536
yamaze 80507
Yezu 80480
bana 80395
tuk@@ 80350
kureba 80269
av@@ 79926
abari 79683
nz@@ 79463
of 79448
a.@@ 79361
Ese 79339
urukundo 79309
Congo 79305
ngombwa 79226
inkuru 79219
mut@@ 79171
inshingano 79137
inzego 79125
Police 79120
'@@ 79072
ahita 79047
Bibiliya 78964
a? 78960
ishuri 78955
kig@@ 78904
nzu 78896
tug@@ 78887
nk'uko 78800
ubw@@ 78763
ibiri 78240
bagize 78230
umw@@ 78226
! 78132
ibitego 78013
yitwa 78005
ntiy@@ 77661
ek@@ 77574
wabo 77481
yan@@ 77247
koko 77226
ingabo 77171
9 76924
Nt@@ 76863
f@@ 76815
er 76697
es 76650
iv@@ 76528
Kenya 76488
nzego 75722
uzi 75657
v@@ 75641
hejuru 75495
y 75447
cyane, 75408
Yakomeje 75282
( 75147
ush@@ 74861
ruhande 74787
The 74693
igira 74665
ukuri 74661
buk@@ 74572
eng@@ 74521
[@@ 74476
irimo 74470
myiza 74379
Ubumwe 74271
baje 74263
byar@@ 74205
zit@@ 74143
bagera 74021
7@@ 73883
ez@@ 73874
mug@@ 73773
gace 73713
agera 73672
neza. 73655
/@@ 73564
abagabo 73507
Kaminuza 73379
gitaramo 73110
igikorwa 73003
11 72949
kibuga 72925
eza 72901
bikomeye 72657
arimo 72516
Bamwe 72450
amahoro 72352
ij@@ 72253
zitandukanye 72158
umubare 72077
kwiga 71993
iny@@ 71795
14 71755
ntib@@ 71719
2015 71517
abas@@ 71485
bajya 71304
guk@@ 71183
abag@@ 71097
hirya 70993
Mata 70945
mwana 70803
urwo 70559
25 70364
nziza 70311
y’igihugu 70281
Tweet 70238
waga 70191
Inama 70183
cye 70126
Murenge 70014
nshuro 69957
mwiza 69913
bad@@ 69905
urwa 69852
ure 69806
ama 69550
abanyeshuri 69542
a: 69359
il@@ 69352
2018 69159
es@@ 69157
mukobwa 68978
18 68930
ot@@ 68713
wawe 68694
ishobora 68616
mugore 68470
ita 68238
zir@@ 67993
bihe 67987
anze 67958
atar@@ 67958
ariwe 67801
16 67789
u, 67755
– 67729
Yavuze 67635
abakobwa 67498
o,@@ 67493
ira. 67417
igikombe 67373
9@@ 67302
Abantu 67302
unga 67181
amakipe 67151
a; 67127
bibazo 67047
bintu 66957
abak@@ 66915
imiryango 66890
igitego 66883
makuru 66783
kazi 66768
gukorera 66741
end@@ 66740
bitaro 66728
e,@@ 66633
musore 66566
ukuntu 66547
serivisi 66511
turi 66506
utse 66376
gih@@ 66353
umutima 66284
agaragaza 66178
ye, 66170
amateka 66144
el@@ 66096
byatumye 66090
ubutegetsi 65998
o.” 65991
inzira 65870
iriye 65846
og@@ 65736
Niba 65717
icyemezo 65568
Mbere 65536
Aha 65535
ira, 65492
Umuryango 65465
gukina 65442
w’u 65420
bashaka 65343
eka 65299
ok@@ 65282
umutwe 65088
Muk@@ 65051
itegeko 65014
uretse 64953
y’ 64792
neza, 64570
8@@ 64533
“ 64444
iga 64437
har@@ 64353
Reply 64312
Werurwe 64283
aje 64283
amb@@ 64228
13 64206
asanga 64086
Mukuru 64068
Nyakanga 64047
yas@@ 63908
yuko 63899
an 63857
nyamara 63850
Nubwo 63752
urira 63735
wam@@ 63714
umutoza 63699
17 63580
zik@@ 63515
zig@@ 63385
Bwana 63360
ije 63319
dufite 63313
izindi 63250
zirimo 63241
uwe 63085
Ikindi 63062
Avuga 63040
mp@@ 63027
inshuro 63019
gutuma 63016
umaze 63015
et@@ 62988
amashuri 62981
nari 62980
Urukiko 62964
mafaranga 62846
Mutarama 62800
kiri 62770
hino 62760
] 62723
nshya 62612
ye. 62596
kiz@@ 62537
Ngo 62495
ndi 62443
kuyobora 62346
Mujyi 62284
is 62225
Emmanuel 62224
und@@ 62141
wanjye 62100
umurimo 61989
inyungu 61973
aby@@ 61804
FPR 61746
aw@@ 61734
sh@@ 61720
hose 61627
iby’@@ 61625
cyari 61601
umur@@ 61580
Ukuboza 61536
tub@@ 61532
ura, 61317
mugenzi 61315
Nta 61290
zabo 61241
Am@@ 61235
ibikoresho 61235
i,@@ 61227
kwita 61149
Ab@@ 61121
hanyuma 61121
rumwe 61029
perezida 61003
nzira 60980
ikindi 60933
:@@ 60931
j@@ 60890
atanga 60870
Ikipe 60768
aye 60760
yahawe 60726
Tw@@ 60673
bivugwa 60673
mutwe 60555
ie 60549
ariyo 60427
... 60391
Sh@@ 60348
atangira 60212
Zunze 60166
Uko 60115
anira 60069
kwishyura 60057
urugero 60041
amw@@ 60013
wah@@ 60013
magambo 59976
icyizere 59936
guha 59925
ruk@@ 59871
are 59813
Kamena 59690
Kanama 59655
irushanwa 59630
rut@@ 59401
n’ubwo 59392
umupira 59387
yacu 59333
byaba 59296
umusubize 58906
abany@@ 58879
24 58873
wab@@ 58755
abahanzi 58747
ngingo 58694
igiye 58690
iperereza 58631
n’abantu 58560
noneho 58558
A 58543
2. 58525
yay@@ 58366
Kigali, 58350
uze 58247
urukiko 58232
Komisiyo 58186
Ar@@ 58090
kwakira 58008
int@@ 58006
ibiganiro 58000
bagira 57939
eri 57915
ant@@ 57909
git@@ 57860
Isi 57847
Kuva 57733
eze 57660
Umuvugizi 57637
bid@@ 57511
bayobozi 57473
kugaragaza 57469
ura. 57456
Gicurasi 57379
ol@@ 57354
umukinnyi 57331
anya 57228
t 57175
Akarere 57163
wag@@ 57132
a! 57107
Gashyantare 57100
politiki 56990
y’imyaka 56968
itorero 56967
nabyo 56898
k'@@ 56892
batandukanye 56797
umuco 56540
impano 56532
Umwe 56439
guhabwa 56376
buh@@ 56352
ushize 56351
bug@@ 56301
rwe 56294
u. 56263
ahabwa 56262
akar@@ 56219
E 55984
ong@@ 55901
bakoze 55865
nar@@ 55807
2@@ 55804
era. 55762
e) 55751
e.” 55648
kw’@@ 55648
ibitekerezo 55639
amezi 55498
era, 55447
23 55288
imibereho 55216
oza 55206
19 55132
a) 55125
ap@@ 55109
yagiranye 55079
ikigo 55000
ul@@ 54980
rwose 54974
anwa 54910
ika 54880
amashusho 54855
itangazamakuru 54817
bim@@ 54798
hakaba 54795
gusaba 54643
Ubuyobozi 54623
ukw@@ 54614
Trump 54573
rug@@ 54521
gutwara 54507
ejo 54503
ia 54449
hasi 54424
polisi 54364
uwa 54347
Abaturage 54345
' 54297
n’ib@@ 54236
uriye 54185
2019 54163
mub@@ 54129
esha 54078
igitekerezo 54074
ubumenyi 54057
eye 54041
ruswa 54032
amanota 54029
21 54028
ubumwe 53989
zari 53984
butumwa 53948
abe 53882
itatu 53832
binyuze 53803
akan@@ 53786
niwe 53760
ani 53752
am 53709
ingamba 53695
and 53677
iye. 53656
igaragaza 53616
imana 53528
bigaragara 53519
mpera 53464
ziri 53459
ukaba 53433
azaba 53387
Bar@@ 53311
ushaka 53219
* 53188
AR@@ 53107
inka 53036
o; 53012
ikir@@ 52993
AS 52987
enga 52983
kugenda 52894
bakinnyi 52883
amatora 52868
erwa 52814
kane 52789
Tanzania 52766
guhangana 52749
iraga 52747
umut@@ 52744
kenshi 52709
ishize 52615
kubaho 52599
iye, 52574
bib@@ 52502
Ntara 52482
a." 52459
ereye 52451
Yanditswe 52361
inz@@ 52309
Comments 52301
umubiri 52260
uma 52184
muz@@ 52120
inshuti 52071
22 51998
a” 51979
mashuri 51976
umuhanzi 51930
raporo 51917
umuziki 51879
afata 51798
Ukwakira 51759
bifite 51739
if@@ 51614
aho. 51596
aho, 51536
ijwe 51526
ava 51506
ikoranabuhanga 51506
hag@@ 51504
bahawe 51499
bash@@ 51478
ina 51457
izwa 51414
Guverinoma 51410
aram@@ 51366
intego 51340
ima 51323
Iri 51233
Kar@@ 51210
wowe 51137
ip@@ 50953
ishyaka 50950
muhanzi 50929
ing 50921
zih@@ 50911
gato 50881
n'abandi 50858
vuba 50804
ugomba 50781
bazi 50774
Musanze 50728
muhanda 50724
umva 50716
urubanza 50681
ch@@ 50678
IR@@ 50672
kwica 50614
guhera 50592
cyiciro 50571
Im@@ 50524
» 50518
yagaragaje 50414
ibit@@ 50358
bwiza 50346
Ugushyingo 50332
batangiye 50327
AB@@ 50171
asa 50149
kwibuka 50130
bwabo 50099
igeze 50095
anz@@ 50078
kurya 50040
umutungo 50037
kure 49944
zimwe 49906
gukorana 49868
umus@@ 49837
3. 49774
Is@@ 49729
kaminuza 49718
dut@@ 49700
bombi 49581
andi 49548
gitondo 49548
o? 49533
uzwi 49527
Kuba 49522
bakomeje 49506
gutsinda 49499
kuza 49473
gutangira 49465
gutegura 49419
ahari 49402
imp@@ 49397
bahanzi 49395
abaye 49388
bitabiriye 49314
modoka 49306
igitaramo 49301
kud@@ 49287
yawe 49173
o: 49150
mbuga 49114
n' 49099
eho 48993
ukora 48987
ziz@@ 48968
twari 48934
matora 48933
mfite 48880
ikora 48873
2020 48841
rit@@ 48806
asanzwe 48783
yayo 48776
babona 48772
amazina 48717
imibonano 48698
byabo 48620
mb@@ 48566
umuk@@ 48556
baza 48488
dukesha 48453
batar@@ 48416
urwego 48283
ibimenyetso 48268
.” 48207
Uwo 48203
(...) 48095
kintu 47942
atangaza 47888
ob@@ 47871
imbabazi 47777
we@@ 47777
ishe 47743
Mur@@ 47715
hak@@ 47657
abaz@@ 47601
njye 47587
a”. 47570
AM@@ 47555
yemeza 47553
akenshi 47546
rye 47498
1@@ 47476
ikinyamakuru 47410
arag@@ 47368
kumw@@ 47339
ntara 47324
Ng@@ 47303
O 47297
umwanzuro 47293
ikomeye 47285
bigatuma 47271
Radio 47262
hat@@ 47260
bindi 47171
Ch@@ 47138
batatu 47105
i.” 47096
yatanze 47091
ubwoba 47076
e? 47062
batuye 47058
bany@@ 47047
Kugeza 47020
wungirije 47012
bakwiye 46990
wak@@ 46981
umusore 46978
amabwiriza 46864
abafana 46857
akarere 46836
akira 46787
Igihe 46741
miliyari 46733
2014 46714
kar@@ 46681
wat@@ 46634
gihugu. 46558
ijoro 46518
e: 46485
ugasanga 46479
Uw@@ 46437
kuk@@ 46403
bakuru 46348
19@@ 46328
bibiri 46318
bis@@ 46302
oye 46259
Museveni 46252
abatutsi 46182
akamaro 46152
avuye 46110
Aya 46093
26 46091
yumva 46013
umwuka 45876
e.@@ 45833
ere@@ 45802
50 45777
nibura 45772
os@@ 45764
tut@@ 45757
ugira 45729
intwaro 45711
bwoko 45689
munota 45687
guhindura 45647
Amavubi 45615
en 45615
burundu 45587
inyandiko 45583
al 45576
eb@@ 45535
ingingo 45533
Al@@ 45506
ubur@@ 45489
abanyamakuru 45486
amaraso 45413
itanu 45408
uv@@ 45406
umukunzi 45381
gusa. 45347
baby@@ 45308
Uretse 45163
Diamond 45111
igice 45035
a-@@ 45027
twar@@ 45013
Nzeri 45010
agenda 44935
BBC 44924
4. 44917
ibijyanye 44836
kwinjira 44835
Africa 44824
ongera 44816
ageze 44781
FDLR 44703
tugomba 44647
wacu 44558
1. 44532
amaso 44522
gisirikare 44503
gusa, 44484
uha 44454
akaz@@ 44422
akam@@ 44413
biy@@ 44407
Dr. 44367
27 44358
n‟@@ 44308
amas@@ 44301
abanza 44284
yise 44273
muganga 44261
ise 44246
rur@@ 44228
Rubavu 44226
28 44211
o.@@ 44194
ano 44190
ubucuruzi 44172
uje 44172
imbere. 44164
urugendo 44129
ku@@ 44097
kit@@ 44070
gishinzwe 44039
kinini 44031
ebyiri 44030
ujye 44018
Pawulo 44014
akunda 43964
bice 43932
ahanini 43927
yaz@@ 43841
imyitozo 43838
”. 43799
bita 43765
angiza 43750
emo 43742
irira 43716
rik@@ 43701
UR@@ 43655
Ikigo 43584
ubukungu 43583
angira 43573
abafite 43572
bigo 43566
uvuga 43549
akwiye 43501
Eric 43494
10@@ 43485
izaba 43480
umubyeyi 43415
nyina 43327
umuh@@ 43269
yabonye 43266
ADEPR 43227
rubuga 43179
ikorera 43178
giti 43124
ore 43053
n’aba@@ 43042
amasomo 42992
ingufu 42941
natwe 42893
ye@@ 42878
y'uko 42855
imb@@ 42845
12@@ 42819
yaho 42746
umug@@ 42715
ukuvuga 42668
buz@@ 42644
Abo 42640
ink@@ 42596
Kiyovu 42566
n’ibyo 42522
i; 42498
imyenda 42462
« 42450
uka. 42415
wayo 42412
gatanu 42281
umba 42263
wamo 42216
Rug@@ 42210
Marie 42200
ibigo 42171
usanzwe 42154
nabwo 42122
nyarwanda 42078
kugaragara 42038
batari 41998
ruh@@ 41989
acy@@ 41979
Nkurunziza 41964
ibir@@ 41951
le 41947
5. 41928
ibihe 41800
mbere, 41798
gikomeye 41783
igifungo 41740
anga, 41643
taliki 41624
umukozi 41598
abiri 41585
muhango 41580
15@@ 41556
nab@@ 41532
aban@@ 41498
n 41480
anir@@ 41474
gukurikirana 41447
imiti 41436
af@@ 41409
ubwa 41402
yashyize 41356
Nk’uko 41350
Nyir@@ 41343
Bufaransa 41339
yongeye 41329
abagize 41328
aj@@ 41323
masezerano 41314
igera 41299
Mut@@ 41251
akiri 41234
bye 41216
gifite 41195
oz@@ 41190
bakunda 41185
11@@ 41156
nanjye 41151
w’ 41148
anda 41144
Inteko 41096
unze 41060
kurushaho 41041
abasirikare 41032
atandukanye 41015
nyandiko 41012
bamw@@ 40950
uhagarariye 40923
akw@@ 40921
mateka 40912
aribo 40900
i: 40896
ali 40870
muh@@ 40860
mirimo 40800
gice 40760
n’izindi 40743
ukomeye 40704
mus@@ 40687
ed@@ 40685
impunzi 40668
yafashe 40659
“N@@ 40652
emera 40633
ite 40615
duh@@ 40572
nkoranyambaga 40540
w’amaguru 40529
ugiye 40397
muyobozi 40381
bato 40358
iti 40353
uc@@ 40316
akab@@ 40315
miryango 40310
Mar@@ 40304
Kubera 40270
Aho 40267
Twitter 40254
babonye 40231
kugura 40214
makipe 40205
umushinga 40165
iwabo 40157
ica 40136
mpuzabitsina 40110
uye, 40052
ibiro 40036
rushanwa 40024
bati 39920
iba@@ 39893
mugabane 39887
angana 39868
amuk@@ 39800
rir@@ 39771
gito 39761
Umurenge 39759
anywa 39742
by’umwihariko 39730
esh@@ 39696
wabaye 39668
ata 39639
gik@@ 39597
bacu 39583
20@@ 39524
make 39494
h 39477
waho 39462
dus@@ 39459
uyobora 39440
ahitwa 39404
ange 39386
agah@@ 39372
Dore 39367
enge 39361
byag@@ 39359
gitabo 39348
mbona 39340
ubutaka 39332
Umwami 39319
d 39315
isi. 39313
bageze 39279
od@@ 39234
itar@@ 39224
Ik@@ 39221
ishami 39215
ashyira 39196
gis@@ 39185
2017, 39106
gush@@ 39106
zar@@ 39075
Kw@@ 39061
agat@@ 38978
abenshi 38975
byabaye 38909
isi, 38893
Papa 38855
yageze 38829
nibyo 38815
Rw@@ 38793
nshingano 38779
myinshi 38769
yir@@ 38750
runaka 38747
eraga 38720
twe 38713
icyorezo 38648
abakunzi 38639
igomba 38628
29 38621
IGIHE 38608
bayo 38599
MU 38572
inga 38561
umubano 38550
ndwara 38519
Kigali. 38509
rutonde 38499
e; 38478
ibiyobyabwenge 38431
indege 38416
Pierre 38399
wa@@ 38389
guhura 38374
muzika 38353
eba 38280
bakan@@ 38224
amajwi 38213
bagabo 38213
akaza 38164
wan@@ 38136
Ir@@ 38132
Gen 38127
Umuhanzi 38122
akag@@ 38115
ikor@@ 38096
filime 38093
impanuka 38074
gutangaza 38043
oma 37987
mushya 37975
akomeje 37950
ukomoka 37944
guca 37931
igit@@ 37923
pm 37921
Mukura 37898
nibo 37885
iraho 37851
ubwoko 37835
n’im@@ 37832
jenoside 37807
wenda 37799
yemera 37776
Imana. 37735
gukorwa 37730
eraho 37700
uj@@ 37687
yifuza 37679
uka, 37662
2013 37629
kikaba 37619
ubut@@ 37603
A, 37590
Uganda, 37574
ond@@ 37564
enda 37509
amur@@ 37503
amwe 37468
anaga 37458
akomeye 37400
abasha 37395
iki? 37394
Mus@@ 37384
yemeje 37355
sin@@ 37345
hashize 37341
bin@@ 37322
Ntabwo 37306
ibyiza 37293
amafoto 37292
18@@ 37285
kwitabira 37273
rig@@ 37264
n’u 37225
bac@@ 37217
uku 37201
intambara 37195
Read 37185
Kiliziya 37168
ubushakashatsi 37165
Gatanu 37162
aze 37153
ikomeje 37148
k 37086
umuriro 37021
uye. 37006
manda 36974
ereka 36967
Banki 36964
haz@@ 36950
oh@@ 36945
40 36939
turere 36938
i.@@ 36919
akoresha 36904
iramo 36895
amasaha 36894
the 36861
gukumira 36832
butegetsi 36789
atatu 36781
ishy@@ 36766
2016, 36735
Joseph 36731
iyemo 36728
kera 36727
ikiganiro 36724
Kandi 36672
kwigisha 36656
bakoresha 36600
ubumuga 36589
ruz@@ 36531
n'uko 36508
Nz@@ 36506
waba 36443
i? 36419
mirongo 36419
Imana, 36414
niko 36379
umwami 36336
gihugu, 36324
Nkuko 36317
ibyangombwa 36306
st@@ 36249
kurinda 36245
ubukwe 36210
bwose 36204
yit@@ 36184
bakiri 36167
kandi, 36160
Umuntu 36130
iro 36093
biganiro 36084
mbi 36035
iza, 36021
yig@@ 36010
gushyiraho 35994
kubura 35994
n�@@ 35960
2018, 35909
duk@@ 35882
bakunze 35859
kuburyo 35833
bifuza 35827
John 35824
ent@@ 35808
000 35795
utar@@ 35794
ishije 35787
2, 35768
amar@@ 35767
wahoze 35754
gatandatu 35749
ubufatanye 35748
basanzwe 35746
kuh@@ 35746
ibyishimo 35733
umwuga 35723
Claude 35718
kuzamura 35708
han@@ 35670
abash@@ 35636
ER@@ 35633
14@@ 35622
ingo 35612
inze 35591
Itegeko 35587
100 35583
bwari 35569
intege 35550
bufatanye 35547
n’abo 35544
Nshingwabikorwa 35526
ifuza 35477
0@@ 35474
umuti 35474
n’aho 35440
barenga 35395
inzoga 35380
ryari 35379
cyar@@ 35340
rubanza 35339
abay@@ 35321
anga. 35305
mum@@ 35302
y'igihugu 35292
ukur@@ 35200
amut@@ 35195
n’umugore 35183
n'ibindi 35172
[…] 35153
Demokarasi 35137
ahandi 35129
bakobwa 35096
yatangarije 35066
numva 35062
enze 35027
1.@@ 35022
enz@@ 35020
etse 35012
yatsinze 34974
mudugudu 34972
akor@@ 34960
muto 34949
azajya 34943
uta 34932
abura 34928
bagore 34926
6. 34890
n’abaturage 34875
et 34860
riri 34858
abir@@ 34845
isaha 34838
Izuba 34820
ubusa 34795
gat@@ 34779
Bugesera 34772
akoze 34765
nako 34748
Gatandatu 34730
uti 34725
was@@ 34720
Huye 34700
C 34698
umuhungu 34680
”@@ 34670
bigaragaza 34668
aherutse 34659
akorera 34658
bahise 34620
irana 34620
Ak@@ 34618
kuw@@ 34607
bavuze 34591
Si 34578
mutima 34547
igih@@ 34540
kigero 34516
oni 34496
bav@@ 34480
amug@@ 34458
aniye 34435
IT@@ 34421
13@@ 34408
é@@ 34398
rukiko 34372
Ati: 34360
bazaba 34346
yahaye 34344
kubana 34343
gusura 34269
abw@@ 34257
riz@@ 34246
ahagaragara 34235
2012 34192
urugo 34176
ubuk@@ 34136
imikorere 34096
bene 34075
urw@@ 34051
Muhanga 33998
abig@@ 33980
ibih@@ 33980
mahanga 33979
INKURU 33972
uts@@ 33967
amakosa 33958
comments 33956
iza. 33902
ns@@ 33895
16@@ 33871
AK@@ 33866
ed 33795
umuturage 33761
anywe 33757
bakomeye 33752
Frw 33748
mibi 33712
Madamu 33700
byaha 33691
y’aho 33680
Mug@@ 33676
ereza 33673
ega 33670
angwa 33584
UB@@ 33578
igihano 33575
mugaragaro 33563
Nk@@ 33550
Abayobozi 33541
kwiy@@ 33470
Mw@@ 33461
Tariki 33459
17@@ 33454
ec@@ 33447
ibihano 33432
Icy@@ 33429
amba 33403
erek@@ 33367
itari 33289
n’umwe 33218
rukundo 33212
gishobora 33209
kuby@@ 33208
afasha 33199
1994 33192
WhatsApp 33191
kubungabunga 33191
bahabwa 33164
Buri 33150
Bir@@ 33126
yanditse 33122
bish@@ 33071
mushinga 33070
Amategeko 33055
utuye 33041
kun@@ 33033
gukemura 33003
ufasha 33002
yanjye 32960
n'ubwo 32953
ema 32948
op@@ 32912
James 32870
yatumye 32854
Akomeza 32849
uraga 32832
birori 32812
bud@@ 32811
iriya 32808
mategeko 32780
New 32779
3, 32749
maso 32742
ese 32741
gereza 32717
eke 32707
n’uburyo 32682
ubwenge 32663
abagenzi 32633
to 32599
mezi 32596
bus@@ 32590
umugambi 32577
bigize 32566
". 32504
itse 32503
gukunda 32492
yih@@ 32407
mbere. 32371
w’igihugu 32361
Bwongereza 32347
yigeze 32340
uny@@ 32317
ukunda 32288
bakorera 32271
kindi 32271
izwe 32270
zifite 32258
isuku 32254
unda 32250
biro 32239
7. 32234
imbuto 32158
n'ib@@ 32152
Gatatu 32139
ozi 32128
kunywa 32113
25@@ 32092
abam@@ 32030
." 32023
umunyamakuru 32012
bimeze 32005
kwig@@ 32005
el 31960
a’ 31958
Umutoza 31955
ishaka 31928
amus@@ 31925
mas@@ 31922
hagamijwe 31913
ntiba@@ 31883
guc@@ 31846
basaba 31826
a". 31796
Padiri 31794
guhagarika 31774
intambwe 31759
Ur@@ 31737
mukinnyi 31727
e” 31719
yiy@@ 31719
y' 31708
bush@@ 31694
AT@@ 31669
waje 31638
AN@@ 31579
umukuru 31577
bazajya 31531
Ubushinjacyaha 31507
kuv@@ 31470
P 31391
its@@ 31371
yabo. 31352
igisha 31343
AG@@ 31334
n’ibindi. 31331
amat@@ 31306
kib@@ 31305
way@@ 31288
ntaho 31286
gute 31282
Ijambo 31275
aga, 31248
B 31247
abonye 31230
abwira 31205
biga 31187
telefoni 31179
us 31178
anye, 31175
amuh@@ 31168
Gicumbi 31145
meza 31127
butaka 31126
uriya 31119
ijuru 31112
yabereye 31109
ukira 31093
Agira 31077
Coronavirus 31057
munini 31057
yambaye 31048
aganira 31047
impungenge 31033
ar 31026
ubufasha 31000
iranye 30993
z’u 30989
itandukanye 30974
ibig@@ 30964
Kuwa 30944
e-@@ 30928
niho 30928
mugoroba 30918
2020, 30915
aga. 30897
ingendo 30835
cyabo 30811
Ambasaderi 30807
igihembo 30788
wir@@ 30785
i) 30783
bimaze 30774
erera 30774
guhuza 30763
emb@@ 30760
urupfu 30755
cy’u 30744
ahura 30734
masaha 30728
bakaz@@ 30719
Abat@@ 30692
Umujyi 30687
rufite 30685
gihe, 30676
atuma 30668
bisaba 30661
usha 30650
iriwe 30614
kim@@ 30583
4, 30536
Urwego 30535
impinduka 30535
akoresheje 30531
ishinzwe 30512
oro 30498
iminota 30481
umuhanda 30479
twitter 30463
30@@ 30461
mun@@ 30414
kugabanya 30342
ibona 30318
2015, 30317
awe 30303
cyawe 30287
one 30252
imishinga 30228
Igitekerezo 30209
Amerika, 30203
Ny@@ 30196
w'imyaka 30190
2019, 30159
Umugabo 30155
anyije 30125
irambuye 30109
uzwa 30076
Nyamara 30068
bitari 30063
ungu 30061
agas@@ 30059
asobanura 30056
hakiri 30041
bemeza 30037
Ibiro 30013
Muh@@ 30009
eje 30008
Olivier 29992
cyaha 29980
IS@@ 29961
Umugore 29961
igitabo 29945
yagombaga 29908
akavuga 29889
umv@@ 29871
ariho 29850
wit@@ 29846
Itorero 29831
ijana 29823
agaragara 29808
intumwa 29808
Stade 29802
twese 29790
e! 29760
abapolisi 29746
ubusanzwe 29743
munsi. 29723
ububasha 29718
Umukuru 29715
ewe 29714
igitsina 29679
imari 29679
Ishinga 29632
Abany@@ 29631
akir@@ 29609
marushanwa 29600
anye. 29584
more 29564
bihumbi 29558
Kristo 29498
akay@@ 29492
IK@@ 29487
WA 29482
kwandika 29482
umb@@ 29470
bandi 29391
apfa 29372
urirwa 29368
akur@@ 29364
Ag@@ 29355
ubuh@@ 29324
y‟@@ 29322
31 29319
ate 29319
y’Epfo 29315
itike 29285
iriza 29229
atera 29228
umukono 29217
kagari 29205
agar@@ 29191
umujyi 29191
ic 29189
abaganga 29175
eny@@ 29170
IB@@ 29165
% 29155
kuganira 29146
mwaka, 29138
ifata 29119
ikig@@ 29106
byombi 29105
bavuye 29090
buvuga 29090
mwaka. 29090
Kabiri 29080
batangira 29064
mazi 29061
bub@@ 29058
itangazo 29054
nanone 29045
Kugira 29038
basaga 29034
nsh@@ 29005
1,@@ 29000
Nk'uko 28996
Ib@@ 28989
atw@@ 28966
Tur@@ 28928
Kayumba 28916
IM@@ 28912
bw’u 28911
Kuki 28897
icumi 28893
imyitwarire 28868
ukwezi 28855
Umwana 28836
rus@@ 28827
baturutse 28813
urubuga 28784
byat@@ 28773
El@@ 28772
abatuye 28760
akajya 28742
G 28738
Gat@@ 28720
cg 28718
imy@@ 28710
kwemera 28706
bic@@ 28686
ah 28653
batanga 28630
Kam@@ 28612
inj@@ 28566
ibya 28535
Ub@@ 28527
ikoreshwa 28527
Igihugu 28522
iha 28518
… 28506
kik@@ 28495
Pr@@ 28480
iteg@@ 28456
amak@@ 28452
bake 28408
ubutabera 28406
birebana 28390
ntawe 28385
ubuhamya 28380
yemeye 28367
bakajya 28358
(R@@ 28355
rero, 28351
2.@@ 28345
Kane 28344
ifoto 28319
du 28302
imvura 28247
Nigeria 28230
amara 28221
moto 28186
myanya 28162
ruri 28161
Guma 28159
bishwe 28150
abarwayi 28144
iteka 28139
oze 28122
IMANA 28118
zikomeye 28105
ma 28102
Tanga 28090
itera 28079
rwari 28052
atang@@ 28046
ini 28043
uzaba 28006
500 28001
umun@@ 27995
bane 27989
ist@@ 27987
yakw@@ 27970
ukorera 27942
Komite 27922
yashimiye 27921
iyeho 27920
ntangiriro 27910
amenya 27896
Rusizi 27890
gusoma 27878
ine, 27867
uriwe 27866
amo. 27860
n’amategeko 27831
Nkuru 27823
2017. 27797
sosiyete 27788
kubahiriza 27774
uwari 27750
byah@@ 27730
8. 27718
bumva 27710
bakozi 27704
Patrick 27687
yash@@ 27677
bafata 27672
United 27636
Sudani 27625
nib@@ 27619
umurenge 27601
o) 27585
This 27582
icya 27554
Manchester 27516
mubiri 27475
umunani 27465
kuny@@ 27453
5, 27446
agura 27429
basanga 27396
Guverineri 27320
agize 27297
Hotel 27252
None 27252
ubus@@ 27226
isura 27215
amakimbirane 27196
erer@@ 27196
n’inzego 27148
bigeze 27145
ans@@ 27131
(C@@ 27104
yafashwe 27082
ibis@@ 27065
Burayi 27060
Habyarimana 27059
Rut@@ 27047
abit@@ 27043
byatangajwe 27042
abab@@ 27041
ishyura 27032
wundi 27024
o." 27017
Ikinyamakuru 27016
ubushake 27006
aribyo 26986
rusange. 26966
ibanga 26963
ishimira 26955
Abakinnyi 26946
ahagana 26941
ngufu 26933
ataz@@ 26928
imibare 26924
barah@@ 26913
ateg@@ 26900
abanyamuryango 26885
ero 26879
as 26876
up@@ 26874
ahana 26823
e." 26822
bagaragaje 26811
Abak@@ 26799
angiye 26798
COVID-19 26790
amahugurwa 26787
• 26781
bisanzwe 26777
nim@@ 26774
rishinzwe 26768
y’Igihugu 26759
eye. 26752
umu 26741
orera 26740
g 26721
ubaka 26705
Nyanza 26701
banki 26677
rubyiruko 26677
ugereranyije 26669
murimo 26647
gusenga 26646
It@@ 26639
la 26636
benshi. 26613
bigira 26613
iko 26594
ubanza 26592
isanzwe 26589
Intara 26586
bigomba 26570
burya 26569
dushobora 26565
Bosco 26548
n’abana 26544
idini 26534
ibon@@ 26532
Rirashe 26530
gusubira 26528
ijwi 26513
gutekereza 26511
Ah@@ 26504
ati@@ 26492
kuririmba 26488
munsi, 26411
ibicuruzwa 26399
ujya 26391
2018. 26379
imbere, 26376
biteganyijwe 26359
)@@ 26340
mar@@ 26331
twa 26291
siporo 26279
engera 26274
isano 26259
kwerekana 26253
Naho 26227
enye 26214
ari, 26203
itanga 26203
arira 26195
ntego 26190
abasore 26186
ngabo 26180
n’abayobozi 26163
uwitwa 26148
ahora 26145
ona 26140
wara 26140
w'u 26127
ingenzi 26099
amazu 26084
akom@@ 26064
ov@@ 26057
gufatanya 26053
banyeshuri 26025
S 26018
kubaha 26003
24@@ 26002
abur@@ 25988
inguzanyo 25982
ibirori 25977
th@@ 25961
Kristu 25940
amashanyarazi 25906
ayobora 25887
rubanda 25879
zib@@ 25879
z 25874
amag@@ 25862
atangiye 25860
cumi 25845
iran@@ 25842
email 25841
9. 25831
rugendo 25822
Real 25796
zid@@ 25790
yavugaga 25788
tuba 25786
y’imari 25782
Izi 25774
iro, 25741
zis@@ 25740
ihohoterwa 25727
ikimenyetso 25700
ry’Imana 25690
mike 25679
ikoresha 25666
abik@@ 25650
ris@@ 25650
kab@@ 25649
or 25624
kwit@@ 25622
St@@ 25606
itwara 25603
iya, 25603
ishyira 25583
mat@@ 25581
Bur@@ 25577
ibyemezo 25546
ishim@@ 25546
guhita 25542
amabuye 25539
eye, 25526
iby'@@ 25516
ntir@@ 25502
age 25482
abim@@ 25481
yihuse 25481
re@@ 25465
oc@@ 25463
tugiye 25463
amp@@ 25462
Har@@ 25459
avug@@ 25447
wumva 25447
ubwe 25436
IG@@ 25429
uruganda 25425
FERWAFA 25404
aro 25404
yindi 25382
Bizimana 25374
n’umugabo 25368
Impamvu 25365
Club 25358
bikwiye 25358
eh@@ 25354
Um@@ 25344
murongo 25343
rub@@ 25341
kugenzura 25337
s, 25333
é 25333
ubuhinzi 25329
rih@@ 25308
igamije 25304
uf@@ 25304
habaho 25300
bugufi 25299
igis@@ 25283
gishize 25274
A. 25258
Ind@@ 25256
akina 25254
Burundi, 25246
kurangiza 25242
nyungu 25226
uba@@ 25225
azwi 25221
yem@@ 25216
n’ubw@@ 25206
abon@@ 25194
e’ 25187
n’umuryango 25184
imitwe 25183
bafashe 25170
…@@ 25168
Umunsi 25150
imisoro 25137
Nyampinga 25133
ituma 25128
zishobora 25117
tuy@@ 25116
est@@ 25099
bushakashatsi 25097
urutonde 25093
bakor@@ 25077
zikaba 25068
isaba 25064
Cyumweru 25063
agak@@ 25058
Mpuzamahanga 25055
27@@ 25046
abakora 25035
afatwa 25032
w’ikipe 25029
Br@@ 25027
YA 25023
rivuga 25022
today 25016
abaho 24993
ibuka 24979
anirwa 24958
ingira 24951
ON@@ 24946
yabanje 24944
arik@@ 24941
ere. 24912
uburezi 24911
habaye 24908
buyobozi 24905
asi 24896
Ingabo 24884
kugaruka 24875
ire, 24848
ri@@ 24847
w’Intebe 24846
eshatu 24844
utari 24837
ubug@@ 24832
2016. 24818
ururimi 24817
itangira 24805
igisubizo 24804
nat@@ 24788
ashinjwa 24786
o” 24786
FC, 24784
ije. 24765
ibaruwa 24763
gikombe 24762
ajyanye 24758
ank@@ 24741
kwitegura 24741
irim@@ 24733
bitatu 24719
umwihariko 24686
yac@@ 24682
kid@@ 24673
Kongo 24664
UT@@ 24662
gushyigikira 24634
igar@@ 24627
ikomeza 24625
[ 24619
gufatwa 24612
Mp@@ 24595
inya 24591
ere, 24578
egera 24577
Nyarugenge 24574
imyanya 24574
a(@@ 24563
ats@@ 24542
Umunyamakuru 24533
ashyirwa 24521
wose 24520
yiteguye 24517
cyag@@ 24511
6, 24484
In@@ 24463
2011 24452
imitungo 24450
1, 24436
o! 24435
ation 24431
AH@@ 24430
biterwa 24424
Nuko 24418
kirekire 24417
ibishoboka 24392
bwar@@ 24377
abih@@ 24365
ashimira 24362
umira 24354
imba 24347
Ingabire 24342
agaruka 24302
Cy@@ 24299
AS@@ 24293
abaza 24285
200 24282
bakab@@ 24271
D 24270
n’uwo 24270
amahanga 24258
bakeneye 24223
cyemezo 24223
bwinshi 24219
agamije 24193
n’uyu 24179
kugihe 24171
ziba 24168
aribwo 24146
for 24130
ibice 24124
bwite 24078
1994, 24077
i” 24075
n’ikipe 24064
ntit@@ 24052
abagera 24036
ivug@@ 24022
Pasiteri 24018
igish@@ 24010
umurongo 23994
a" 23992
atandatu 23991
Related 23984
tegeko 23953
26@@ 23951
my@@ 23946
abarimu 23938
aravuga 23935
n’abak@@ 23931
atsinda 23916
icyumweru 23916
bakay@@ 23913
bivuze 23906
muziki 23891
kwir@@ 23870
gufungwa 23861
Me 23839
anya. 23839
yisumbuye 23839
Reka 23835
areba 23830
kwambara 23820
ene 23809
n'abantu 23802
total 23799
ey@@ 23794
Gen. 23787
bakar@@ 23786
usaba 23782
ande 23769
zunze 23768
mugihe 23765
bashya 23758
byose, 23738
guverinoma 23736
ers 23723
bibaye 23721
nti 23714
iram@@ 23700
Umukino 23680
akorwa 23677
angir@@ 23675
kari 23672
Kwamamaza 23671
ishwa 23664
zombi 23659
kumi 23654
views 23652
amubwira 23645
bakomeza 23636
ena 23633
weho 23632
y’amavuko 23624
Ad@@ 23618
amarushanwa 23617
e”. 23613
w’Akarere 23606
Like 23601
IN@@ 23595
anya, 23590
bitangazwa 23566
ubwira 23565
n’abat@@ 23562
imihanda 23537
bibi 23530
umusanzu 23529
tsinda 23516
3.@@ 23510
ibihembo 23506
gah@@ 23504
m 23497
bagaragaza 23486
cyumba 23469
urimo 23442
cyorezo 23435
y’abantu 23434
ej@@ 23428
Amazina 23423
ome 23410
o”. 23398
ariye 23389
bahita 23389
reka 23380
inyubako 23378
bagenda 23376
inyigisho 23347
igizwe 23340
arar@@ 23338
yakozwe 23325
ibar@@ 23317
Undi 23287
abera 23283
orwa 23283
kwizihiza 23275
OR@@ 23266
yagarutse 23264
abasaba 23254
kw'@@ 23246
Int@@ 23236
kose 23235
wenyine 23228
Donald 23218
AD@@ 23177
baw@@ 23169
anisha 23162
gukor@@ 23148
ahawe 23143
izaga 23140
ezwa 23116
nyubako 23116
views, 23092
oko 23091
yitabye 23085
rundi 23076
ubuhanga 23066
uburwayi 23060
Iharanira 23044
Th@@ 23043
Mb@@ 23033
eretse 23033
Sport 23031
ukwiye 23030
Abar@@ 23010
David 23010
basanze 23005
wi 22998
abwa 22988
Izindi 22979
andika 22941
ibik@@ 22939
yib@@ 22935
atuye 22932
23@@ 22902
igihugu. 22898
y’uyu 22894
Tr@@ 22874
Abana 22868
ifasha 22864
EN@@ 22857
Inkotanyi 22849
o-@@ 22845
ike 22843
iye@@ 22839
Ingingo 22838
ajye 22826
Uganda. 22819
byiciro 22813
ohereza 22801
imir@@ 22800
%, 22796
waye 22795
kuki 22783
ion 22757
Afurika, 22751
mupira 22749
ezeho 22748
kabiri, 22748
7, 22744
kare 22737
kwegukana 22730
utera 22721
2010 22708
yasobanuye 22708
bikuru 22706
n’iyo 22695
pr@@ 22693
zigera 22674
igize 22671
kanya 22651
umunyamabanga 22651
by’ukuri 22638
erekeza 22612
ow@@ 22610
Visi 22606
ahag@@ 22606
uruk@@ 22606
Vincent 22600
Robert 22599
Amerika. 22594
co@@ 22571
n’ubuyobozi 22566
uyemo 22563
itabira 22553
kag@@ 22539
guharanira 22534
kwemeza 22518
yavuye 22512
re 22504
l 22501
Ben 22488
gutangiza 22462
Bushinwa 22457
28@@ 22455
i-@@ 22455
rwabo 22450
«@@ 22446
impapuro 22425
aka, 22424
Petero 22423
Madrid 22411
Mal@@ 22393
yabo, 22392
ubak@@ 22389
kubat@@ 22383
Musenyeri 22373
ango 22365
izera 22355
Icyakora 22346
Abandi 22337
imanza 22333
atira 22323
yabaga 22321
yakiriye 22321
ins@@ 22314
benshi, 22304
Gasabo 22296
iho 22293
uriza 22276
60 22273
Uru 22269
T 22268
ingoma 22249
Kab@@ 22245
byose. 22221
iro. 22214
Ikibazo 22211
Abas@@ 22208
by 22205
akunze 22194
asaga 22194
gupfa 22192
UK@@ 22174
komisiyo 22174
ibiciro 22168
igik@@ 22149
arenga 22146
ara, 22143
kwitwara 22134
mirenge 22124
kubyara 22114
utse, 22111
gukura 22106
metero 22090
anzwe 22071
ameze 22048
kumuh@@ 22039
batanu 22034
Kenya, 22033
rikaba 22025
ibitaramo 22012
ino 22006
uke 22006
ubushinjacyaha 21978
bisa 21954
ori 21945
z’umutekano 21944
ashoboye 21933
iw@@ 21932
enya 21931
ubwicanyi 21909
1994. 21907
anwe 21901
ndege 21892
umuhango 21887
ubu, 21884
agahinda 21871
Nanone 21869
bumwe 21854
ikirego 21841
akoreshwa 21836
ababwira 21826
abafasha 21821
magana 21820
bashinzwe 21816
ibitero 21809
Ubw@@ 21806
amagara 21789
2009 21767
yanyu 21760
has@@ 21758
kubah@@ 21757
kubak@@ 21744
ika, 21741
irik@@ 21732
bizaba 21727
ije, 21725
00@@ 21720
Kan@@ 21720
cy’imyaka 21709
ukub@@ 21703
gutaha 21702
oka 21696
bakoresheje 21695
kwih@@ 21689
umuvugizi 21676
banyarwanda 21672
Ubusanzwe 21667
ubush@@ 21654
Charles 21650
biba@@ 21638
ryar@@ 21625
amatwi 21621
bakag@@ 21616
4.@@ 21614
amo, 21605
Amahoro 21600
telefone 21579
amah@@ 21558
bataz@@ 21557
Kuko 21545
(M@@ 21541
agace 21537
inde 21528
ishinga 21520
uro 21512
Sal@@ 21510
isabukuru 21507
ev@@ 21502
hato 21501
le@@ 21501
N’@@ 21486
isa 21476
IC@@ 21460
ende 21460
kubanza 21456
Kicukiro 21451
Kivu 21450
imyanzuro 21443
197@@ 21436
Abakristo 21427
ingengo 21421
y'imyaka 21416
yerekeza 21413
ize. 21411
ufata 21411
ikin@@ 21410
apf@@ 21386
Hakizimana 21378
Satani 21375
eramo 21367
abahinzi 21357
ibag@@ 21353
qu@@ 21348
Itangazo 21342
Gas@@ 21316
uga 21308
Leta, 21307
Innocent 21296
abanya 21290
ibutsa 21287
kubwira 21287
Ends 21286
bagah@@ 21284
banjye 21282
Kagame, 21277
cyiza 21270
kwivuza 21269
n’ubundi 21268
Arsenal 21246
kiriya 21241
asigaye 21240
twag@@ 21237
Iby@@ 21229
avuze 21214
erekana 21213
er, 21203
yo. 21185
Afurika. 21174
(S@@ 21162
f 21157
10. 21153
kunoza 21136
bikoresho 21130
ika. 21130
gushakisha 21113
itab@@ 21102
bigamije 21095
mibereho 21080
abavandimwe 21072
kubar@@ 21071
ell@@ 21070
8, 21059
gusubiza 21059
%. 21057
rutahizamu 21057
anyijwe 21056
kuruta 21047
kugirana 21043
enge, 21038
1-@@ 21032
nacyo 21009
umub@@ 20999
umugisha 20995
yanze 20973
imyumvire 20970
maboko 20966
Loni 20957
IZ@@ 20954
bagat@@ 20950
29@@ 20947
isomo 20943
oy@@ 20941
emeza 20934
Ayo 20930
abaga 20920
n’iby@@ 20919
zag@@ 20871
ishyirahamwe 20865
this 20863
ayi 20853
yerekana 20848
ef@@ 20843
ubah@@ 20837
196@@ 20836
Jay 20820
City 20810
basore 20804
imit@@ 20791
ateganya 20771
ikamba 20761
aye, 20751
it 20748
Bishop 20736
mahugurwa 20730
rushinzwe 20719
omb@@ 20717
oje 20714
akeneye 20709
Koreya 20692
Reba 20687
r 20686
9, 20685
p 20684
itegura 20683
ngiye 20674
bitar@@ 20665
abandi. 20648
Kal@@ 20644
asubira 20639
Ahubwo 20635
mbese 20624
basigaye 20622
se, 20606
Yongeyeho 20605
Ibitekerezo 20603
ari. 20596
ill@@ 20596
eneye 20586
c 20579
se@@ 20577
ia, 20576
komite 20576
utse. 20572
y’umwaka 20547
aturuka 20528
Mat@@ 20519
eni 20517
rikomeye 20503
angije 20495
icyubahiro 20494
ubukangurambaga 20489
Kur@@ 20472
anag@@ 20471
kumus@@ 20471
anzi 20470
hantu 20449
amaz@@ 20441
bushya 20425
ingana 20425
usibye 20425
b 20421
“B@@ 20415
ibitaro 20410
abwe 20408
tukaba 20408
imitima 20397
2019. 20385
bishoboka 20385
abac@@ 20381
yarag@@ 20369
R 20357
Col 20349
Tom 20339
afashe 20334
n’ab@@ 20334
gutunganya 20318
bafitanye 20284
amya 20279
erwaho 20276
ukiye 20275
remezo 20261
rukaba 20252
n’igihe 20246
nyir@@ 20242
osh@@ 20236
nke 20231
rusengero 20228
inzi 20227
Mana 20222
Ruh@@ 20213
w' 20212
duce 20208
gushyirwa 20207
mak@@ 20195
ose 20186
ubwiza 20180
eri, 20169
uza, 20168
Rwamagana 20167
i." 20161
M 20154
kin@@ 20145
anab@@ 20143
imbogamizi 20143
ee 20141
gihe. 20138
ukoresha 20138
abana, 20135
byagiye 20131
abashinzwe 20125
iter@@ 20116
aboneka 20105
ikom@@ 20104
indura 20101
Miliyoni 20090
ess@@ 20086
byaje 20082
eza, 20082
kumara 20082
CAF 20076
Obama 20076
yegukanye 20075
ntar@@ 20064
umwenda 20048
urugamba 20048
Martin 20041
Zari 20038
impande 20030
tun@@ 20029
kivuga 20026
gucunga 20006
ufashe 20005
ukor@@ 20003
mubi 20000
By@@ 19999
ake 19997
guhora 19996
wany@@ 19987
gutandukana 19972
yitabiriye 19966
uruh@@ 19961
kiba 19960
yishimiye 19960
ikosa 19955
nazo 19946
mba 19943
umush@@ 19941
he 19937
Ig@@ 19928
itang@@ 19923
Kir@@ 19917
Abah@@ 19916
CO@@ 19915
ejwe 19910
w’Imana 19905
kumut@@ 19904
cyacu 19901
irwe 19891
album 19883
uca 19881
inteko 19871
uhereye 19870
atag@@ 19864
gukoreshwa 19855
ugu 19849
200@@ 19845
azag@@ 19835
utu 19830
ep@@ 19826
nyakwigendera 19826
ibyago 19816
Sports, 19802
insh@@ 19796
y, 19796
batanze 19784
ahamya 19775
ibiribwa 19775
asubiza 19759
“Ni 19756
Abagore 19752
Umug@@ 19748
zim@@ 19741
An@@ 19731
Yari 19730
amavuta 19726
amata 19722
Richard 19707
ane, 19705
igitero 19693
imiyoborere 19691
bigenda 19686
yis@@ 19684
ubaha 19679
ES@@ 19676
utaha 19670
azira 19667
,000 19663
nag@@ 19660
isonga 19656
wigeze 19629
Nyagatare 19617
kurengera 19616
biteguye 19601
bakavuga 19600
Gikondo 19584
ibitabo 19582
yatewe 19563
ani, 19558
eli 19555
enera 19544
bose. 19535
dukora 19532
idasanzwe 19531
mafoto 19531
EM@@ 19530
ishema 19526
uramo 19524
Bubiligi 19521
"N@@ 19516
zindi 19511
2020: 19510
ayoboye 19510
anza 19503
badafite 19502
umurambo 19501
ntambara 19490
kugarura 19481
urug@@ 19480
nzi 19470
tubona 19467
eko 19461
Shikama 19458
Pastor 19456
muco 19451
kam@@ 19448
sa 19447
shuri 19429
Mas@@ 19425
izwi 19425
ashingiye 19419
urag@@ 19416
ongo 19412
nak@@ 19411
wemo 19410
kuzana 19407
AMATEGEKO 19402
mihanda 19402
butandukanye 19398
ukana 19396
ibisubizo 19394
igihugu, 19387
bivuga 19381
2,@@ 19378
aca 19374
akana 19362
?@@ 19353
kuvugana 19346
abarwanyi 19345
esheje 19339
ijya 19339
onga 19334
Umukobwa 19331
hamaze 19329
mama 19329
mudasobwa 19321
imo 19320
Rus@@ 19319
ishimiye 19319
tu@@ 19316
kinyamakuru 19313
hakurikijwe 19301
emba 19298
agenga 19296
Gus@@ 19291
ushy@@ 19291
Kay@@ 19272
irindwi 19272
busanzwe 19271
ntiz@@ 19271
wabereye 19261
akura 19259
N’ubwo 19252
Gah@@ 19250
bafashwe 19250
bahura 19245
mwene 19245
wih@@ 19245
ijyanye 19229
kimaze 19226
yakoreye 19222
International 19215
kirimo 19210
rurimi 19210
yav@@ 19209
Tanzaniya 19206
aza, 19200
itwa 19193
ique 19188
ateye 19184
n’undi 19183
isha, 19177
ibiti 19172
amash@@ 19168
Diane 19153
Nteko 19151
mpanuka 19139
UW@@ 19126
kitari 19111
isha. 19106
Misiri 19105
amaboko 19096
iharanira 19091
nicyo 19089
Francis 19083
rusange, 19081
RW@@ 19074
rishingiye 19068
iya. 19067
ubuzima. 19067
Na 19049
bakina 19029
bufite 19024
ukuriye 19016
aye. 18989
Kag@@ 18988
Aba@@ 18985
2020. 18980
ruganda 18972
imibiri 18970
yany@@ 18968
ineza 18963
Jenoside, 18953
mubyeyi 18942
iherereye 18933
rifite 18927
tumaze 18923
Umw@@ 18921
198@@ 18916
IRA 18907
amenye 18900
gutoza 18900
ati, 18899
Di@@ 18898
icyiciro 18896
imiterere 18895
Umunyarwanda 18894
ihuriro 18892
Israel 18890
imbunda 18884
As@@ 18880
abigishwa 18879
man@@ 18873
n’icyo 18871
injira 18867
babaga 18855
Abag@@ 18854
ra 18849
kwiyamamaza 18843
League 18834
UN@@ 18833
wikwandika 18833
A) 18830
bariya 18824
La 18812
rugamba 18807
inganda 18804
ubukene 18796
minisitiri 18795
owe 18795
y’amafaranga 18795
internet 18793
yapfuye 18791
gutora 18790
y’Abaminisitiri 18789
Umut@@ 18779
Bruce 18776
C, 18775
Mugabe 18775
erez@@ 18774
07@@ 18767
abahanga 18764
At@@ 18763
gusoza 18763
WE 18758
abantu, 18755
yi 18755
bukomeye 18753
Bag@@ 18737
gakondo 18725
baba@@ 18724
ubwiye 18711
2015. 18710
babar@@ 18710
nkambi 18710
arang@@ 18700
n’indi 18700
ereje 18687
yateye 18686
eza. 18667
anda, 18665
N'@@ 18662
yakoresheje 18657
umye 18648
ntago 18644
Kirehe 18629
gusuzuma 18628
ahanishwa 18618
erewe 18616
barat@@ 18615
Ngoma 18613
ipaji 18608
ntaw@@ 18606
gusanga 18605
amu 18595
vs 18593
ingir@@ 18589
n'aba@@ 18588
anj@@ 18584
Sangiza 18580
Rusange 18561
Mugisha 18559
ize, 18554
Remera 18552
biza 18541
mashusho 18541
y’iminsi 18536
asabwa 18531
kwiba 18527
ke 18526
5.@@ 18517
tuzi 18505
Nshimiyimana 18503
AGENGA 18499
Ma@@ 18498
atigeze 18493
yatawe 18487
Afrika 18480
egura 18473
ashimangira 18463
Safi 18461
gish@@ 18460
ou 18454
AF@@ 18453
yo, 18443
Bimwe 18439
ro@@ 18430
izi, 18419
kubag@@ 18413
.000 18410
Urubyiruko 18403
Depite 18381
kuvugwa 18378
300 18377
70 18369
abacuruzi 18369
Mun@@ 18356
y’igihe 18348
kwiteza 18337
Tour 18329
yishwe 18321
ambo 18314
Shampiyona 18308
abayoboke 18306
eho. 18303
ogo 18302
rid@@ 18297
irir@@ 18296
kwibaza 18291
b’ibihugu 18286
abye 18284
“T@@ 18284
bakw@@ 18282
ANA 18281
uhuza 18272
nshingwabikorwa 18270
ice 18255
bukaba 18248
umunyarwanda 18241
umvikana 18238
hakoreshejwe 18236
ukura 18236
3:@@ 18229
NT@@ 18225
imvugo 18223
afat@@ 18218
emeye 18209
kumvikana 18209
Fc 18201
ashy@@ 18198
iy’@@ 18197
zayo 18189
2014, 18184
aba, 18183
ifitiye 18180
Ishyirahamwe 18177
CYAWE 18175
umwe. 18165
ari@@ 18158
yatanzwe 18158
bwag@@ 18153
Min@@ 18152
bakorana 18151
n’ibibazo 18140
Frank 18137
ator@@ 18127
umwe, 18124
y’i 18123
habayeho 18122
amub@@ 18119
ou@@ 18110
n’abag@@ 18109
Gut@@ 18107
Imp@@ 18100
uru, 18100
Man@@ 18093
ion@@ 18089
enewe 18083
IYANDIKA 18079
RY'IGITEKEREZO 18072
omba 18072
igenda 18059
byam@@ 18055
Umur@@ 18040
hagiye 18035
ikaz@@ 18030
itw@@ 18030
es, 18029
w’Abibumbye 18029
bigera 18026
Nyakubahwa 18023
itwaye 18023
Ubuzima 18021
aha, 18016
w'amaguru 18012
musaza 18010
bose, 18008
kubafasha 18001
biturutse 17995
Mariya 17986
uza. 17974
ibanze 17966
mupaka 17945
os 17939
35 17936
Congo, 17920
namwe 17917
bava 17907
Ronaldo 17905
basabye 17904
abad@@ 17903
ire. 17894
batazi 17891
iteguye 17888
ano, 17884
bundi 17883
uherutse 17883
abashije 17882
ence 17874
igiciro 17874
bimenyetso 17866
stade 17855
kwerekeza 17854
uye@@ 17851
bwe. 17848
atekereza 17847
—@@ 17843
bizatuma 17842
ibye 17832
babyeyi 17820
ntiby@@ 17809
Covid-19 17806
ikorwa 17801
y’abaturage 17800
mabwiriza 17798
umushahara 17798
ahan@@ 17796
intsinzi 17795
mah@@ 17766
mu@@ 17763
yang@@ 17758
anc@@ 17757
199@@ 17756
kumur@@ 17756
Kabila 17750
ANG@@ 17748
irenga 17746
uruhu 17746
barar@@ 17734
itangaza 17730
ex@@ 17726
nyine 17725
Se@@ 17720
mpande 17715
bwacu 17714
eye@@ 17710
ishingiye 17710
gitsina 17707
gitekerezo 17694
izam@@ 17693
ane. 17684
minisiteri 17666
urir@@ 17657
n’andi 17656
ad 17642
abaf@@ 17639
a), 17628
ashinzwe 17627
i! 17626
nimero 17620
Le@@ 17618
tw’@@ 17616
ondo 17614
mutoza 17613
abahungu 17612
urik@@ 17611
kohereza 17608
bagas@@ 17595
kureka 17594
yashyizeho 17593
y’Imana 17590
ifat@@ 17587
te 17587
ima, 17578
eshya 17577
Siporo 17574
yaguye 17574
Uwiteka 17563
HANO 17562
abakuru 17551
arangije 17543
ungura 17543
2008 17531
uvuye 17528
ERA 17524
ozwa 17516
Kizito 17515
ahuye 17506
atanu 17505
enga, 17499
byak@@ 17495
agire 17491
ejeje 17488
Uz@@ 17472
akorana 17471
azana 17468
il 17463
asub@@ 17462
byinshi. 17447
byagenze 17436
ph@@ 17435
u,@@ 17429
bishimiye 17427
ard 17424
ingengabitekerezo 17422
Bas@@ 17413
n'izindi 17409
rwar@@ 17408
nk’aho 17404
Grace 17397
babig@@ 17394
Mama 17393
uruka 17392
of@@ 17384
nteko 17382
byan@@ 17370
icyenda 17367
00 17363
w 17361
Intumwa 17354
kugerageza 17354
turimo 17349
yose. 17347
uram@@ 17339
ent 17335
SIDA 17334
Data 17325
Ibihugu 17325
imana, 17313
wiy@@ 17313
isub@@ 17301
uyoboye 17298
konti 17286
yahuye 17278
Ing@@ 17275
rukomeye 17270
ibizamini 17256
Kimwe 17237
n’abany@@ 17231
Akagari 17224
US@@ 17223
ir 17221
Iny@@ 17219
mud@@ 17219
Espoir 17212
arab@@ 17204
on, 17200
barangije 17197
Kuya 17195
b’u 17182
cy'u 17178
Nsengiyumva 17175
yasanze 17167
Guh@@ 17159
ishyamba 17155
bitandukanye. 17151
SOMA 17137
kwigira 17132
ukom@@ 17132
Ubushakashatsi 17131
Kagari 17130
nda 17117
ya@@ 17117
RNC 17115
Car@@ 17108
Kwizera 17103
babaye 17099
cyan@@ 17094
yandi 17085
kizaba 17080
bikunze 17067
unz@@ 17063
zat@@ 17061
ingano 17057
zah@@ 17041
Itsinda 17040
gas@@ 17039
Jeannette 17036
n’umuntu 17028
bahuriye 17016
bwawe 17010
yashakaga 17008
yagaragaye 16992
ame 16990
UM@@ 16988
yita 16984
bambaye 16981
mugi 16965
Iteka 16960
abo, 16958
ubera 16957
unga, 16950
ibaza 16949
ano. 16948
Meddy 16945
n’igice 16944
ishyirwa 16943
wakw@@ 16930
Knowless 16925
ND@@ 16920
atangwa 16919
Nshinga 16911
ukiri 16907
bishy@@ 16906
imbura 16904
ayis@@ 16894
mit@@ 16891
ARI 16884
bun@@ 16883
kanseri 16883
yaba@@ 16883
televiziyo 16878
binyuranye 16876
kubwiriza 16873
uvug@@ 16871
gitero 16864
yarat@@ 16861
akwiriye 16857
ibihangano 16848
be, 16836
Korali 16833
Par@@ 16829
F 16828
akanya 16828
afung@@ 16826
yahisemo 16823
hifashishijwe 16811
Fr@@ 16810
Cancel 16802
n’ibikorwa 16798
Ishami 16796
Kim 16786
ima. 16783
bakom@@ 16778
kwizera 16778
Umuseke 16769
n’iki 16767
50@@ 16761
bamenye 16761
ishusho 16760
Urban 16757
umuvuduko 16757
uguh@@ 16755
80 16750
atak@@ 16750
mo 16746
yamw@@ 16745
yose, 16745
Niyonzima 16743
CIP 16739
ota 16733
bwe, 16724
Ubundi 16721
n’ubu 16720
n’umuyobozi 16717
’, 16717
Amafoto 16715
Indirimbo 16691
ra@@ 16687
kamere 16685
aha. 16681
AL@@ 16678
byakozwe 16675
ibyumweru 16669
bise 16667
i”. 16657
AY@@ 16656
UG@@ 16643
nini 16636
oni, 16636
mwe 16634
Bw@@ 16631
arah@@ 16629
yewe 16627
ubwabo 16626
intwari 16616
n’abagore 16614
Ethiopia 16607
baj@@ 16597
bateg@@ 16590
ikar@@ 16589
cyat@@ 16557
uran@@ 16556
guterwa 16545
ezi 16534
King 16532
kwiyongera 16524
yakor@@ 16515
s) 16511
Nsabimana 16510
www.@@ 16508
ikan@@ 16506
RIB 16496
ashima 16493
koperative 16489
yinjiye 16489
01 16485
yatang@@ 16483
ey 16481
eka, 16479
ayo. 16477
babon@@ 16473
nkaba 16472
Ben@@ 16469
n'abaturage 16454
babanje 16450
Uburyo 16442
abikora 16440
munani 16439
nderabuzima 16428
agamo 16427
aragaza 16415
igend@@ 16414
cyitwa 16411
bakam@@ 16410
e" 16410
jya 16410
izajya 16407
io 16398
Nyam@@ 16389
OM@@ 16388
ukina 16384
iwacu 16379
ora. 16379
Hashize 16378
kumug@@ 16376
abira 16370
bikor@@ 16366
Politiki 16363
yiga 16362
abaturage. 16360
n’uw@@ 16358
cy’Igihugu 16357
.com 16344
yaravuze 16322
uby@@ 16309
Canada 16302
zimaze 16302
n’ub@@ 16298
10, 16292
gukangurira 16287
Champions 16285
USA 16285
ishoramari 16280
yasuye 16278
nam@@ 16266
POLITIKI 16261
umucamanza 16260
2:@@ 16254
6.@@ 16254
Kig@@ 16249
Karongi 16247
abaha 16246
ashyize 16243
Ishuri 16229
Sin@@ 16226
mag@@ 16224
amatungo 16223
Ushobora 16222
ibwa 16222
abara 16219
bahuye 16216
1:@@ 16215
azah@@ 16213
ngaruka 16213
abone 16208
amadini 16207
ushyira 16204
umuz@@ 16195
all@@ 16193
basabwa 16191
n’imwe 16189
iwe. 16175
ore, 16175
ungira 16174
iriho 16166
mitwe 16162
ufash@@ 16161
gucuruza 16157
induka 16157
ozi, 16156
kumurika 16152
yongera 16151
y�@@ 16140
wifuza 16136
amasoko 16133
ibyabaye 16133
ishize, 16129
ry 16127
eshanu 16126
ibwira 16123
intara 16113
inzara 16110
e), 16102
ajyana 16088
ujwe 16085
mvugo 16066
Benshi 16062
oya 16056
ubuzima, 16056
ibyuma 16038
bigiye 16037
wakoze 16025
aheruka 16023
ntera 16018
African 16010
tud@@ 16009
igana 16005
imihigo 16003
n’amanota 16000
nah@@ 15994
aka. 15992
Umus@@ 15984
Gasana 15983
Gis@@ 15981
we.” 15963
Yehova, 15947
itangwa 15946
bucuruzi 15943
bwakozwe 15938
’. 15925
urikira 15920
Baptiste 15915
cyabaye 15913
ungwa 15913
All 15906
biv@@ 15903
n'aho 15902
atse 15892
guhungabanya 15889
BY@@ 15883
n'ibyo 15882
angam@@ 15881
ashyiraho 15880
Messi 15879
$@@ 15873
inyama 15873
aricyo 15869
be. 15865
v 15864
itsinze 15861
ina, 15856
njyana 15855
aye@@ 15853
ikarita 15848
Instagram 15846
kuya 15845
ati:”@@ 15838
byinshi, 15833
buributsa 15824
IY@@ 15820
twah@@ 15820
bishingiye 15810
abandi, 15799
izamu 15799
20, 15798
upf@@ 15789
Ih@@ 15785
we,@@ 15770
byerekeye 15766
abikorera 15761
irirwa 15760
yic@@ 15759
beza 15758
by‘umuvunyi 15752
Ibikorwa 15738
unzwe 15738
izuba 15737
Ishyaka 15734
in, 15722
myugariro 15718
ri 15715
Abahamya 15709
igo 15706
kwamamaza 15698
ifashe 15696
angar@@ 15693
bitaramo 15693
K 15691
akayabo 15686
undi, 15685
by'umwihariko 15682
mishinga 15679
Gatolika 15676
endera 15674
intoki 15673
basirikare 15669
enza 15667
Paruwasi 15663
mush@@ 15654
ariya 15650
s. 15648
Nyak@@ 15644
unga. 15640
Biteganyijwe 15638
kwanga 15633
ase 15628
ihang@@ 15628
zituma 15628
akimara 15626
igisirikare 15622
agerageza 15616
ubuvuzi 15614
e". 15613
Ink@@ 15612
icumu 15609
yad@@ 15609
inzozi 15608
Co@@ 15603
eka. 15597
rukuta 15588
*@@ 15582
babo. 15581
w’akarere 15578
zishinzwe 15577
Abakozi 15576
cy’igihugu 15574
gushimira 15566
n’abakobwa 15562
yandikiye 15562
akanama 15556
umukandida 15551
Ruhango 15550
ubutwari 15549
kabiri. 15547
nabi. 15547
”, 15547
bagamije 15536
an, 15528
Leta. 15519
kuvura 15519
bitera 15516
shingiro 15512
ance 15510
Habineza 15505
bagombaga 15505
ikizere 15505
Abanyeshuri 15504
d’@@ 15499
Ruk@@ 15489
AZ@@ 15487
Ibintu 15476
Mushikiwabo 15458
matsinda 15458
biyemeje 15448
kugurisha 15448
baravuga 15443
abashaka 15442
ashatse 15440
ikira 15431
ID@@ 15430
cy’ 15423
ibidukikije 15421
yasohoye 15418
imirire 15417
ibaz@@ 15416
isanga 15413
ayih@@ 15412
zirenga 15409
abis@@ 15408
jye 15398
amahoro, 15394
akinira 15393
akub@@ 15391
ibura 15390
majwi 15389
rugero 15385
n’icy@@ 15380
!@@ 15378
ekera 15371
ubugingo 15370
rim@@ 15369
yavutse 15365
enge. 15361
Inzego 15354
ubahiriza 15349
ebe 15348
Mbabazi 15343
Gu@@ 15341
urur@@ 15328
gufungura 15327
Meya 15326
n'u 15322
Burundi. 15309
buhinzi 15298
byagaragaye 15298
unganira 15297
buke 15294
bishimira 15288
Peter 15286
njyewe 15278
rib@@ 15278
cy’uko 15277
n'ubw@@ 15268
iwe, 15255
ann@@ 15252
abantu. 15244
afitanye 15244
Iz@@ 15240
y’ib@@ 15237
Tanzania, 15231
urebye 15219
azar@@ 15217
myitozo 15198
aragariza 15196
bamus@@ 15192
abo. 15188
Kampala 15187
AC@@ 15184
Mudugudu 15184
ubatse 15183
oko, 15182
kwib@@ 15180
reply 15173
ibisabwa 15169
yashimye 15168
201@@ 15161
ihuza 15159
anyaga 15158
I, 15153
atwara 15152
bategereje 15152
Etincelles 15147
ipf@@ 15144
Mak@@ 15143
ikwiye 15141
ara. 15138
ntak@@ 15138
X@@ 15137
bajye 15131
emerera 15129
uruhushya 15129
n’Imana 15126
AP@@ 15125
Kinshasa 15115
ade 15115
zacu 15115
abereye 15114
babana 15114
ezweho 15113
ubujura 15113
yatwaye 15109
Umun@@ 15104
Al 15098
ach@@ 15091
buriya 15091
igwa 15087
Az@@ 15080
guhitamo 15080
ege 15072
Ut@@ 15064
Niyo 15063
ibagirwa 15055
muturage 15048
inda. 15046
imashini 15042
ibisobanuro 15041
yajyaga 15041
this: 15040
uyeho 15040
buhoro 15036
bakekwaho 15033
akazi, 15031
kuboneka 15029
kurangira 15028
nyiri 15022
z’ibanze 15016
MUK@@ 15014
@@@ 15013
KU 15013
ambwira 15012
com@@ 15009
imbaga 15009
barag@@ 15007
yuzuye 15007
ibinyabiziga 14991
“M@@ 14990
Ltd 14986
nkunga 14985
eti 14976
aman@@ 14974
field 14964
o". 14961
nabi, 14956
yabashije 14951
abahutu 14946
guhanga 14944
n'umwe 14938
gutsindwa 14934
ale 14931
yakoraga 14928
murwa 14927
bye. 14924
ikoze 14923
inyuma. 14920
2000 14916
imbuga 14913
abana. 14904
ubaza 14901
basabwe 14899
nti@@ 14897
uru@@ 14896
imw@@ 14893
n'iyi 14893
hariho 14889
rwiyemezamirimo 14887
burundu. 14878
ezer@@ 14878
impaka 14878
cyenda 14877
ifashisha 14875
ushize, 14872
mis@@ 14853
Ish@@ 14851
impamyabumenyi 14851
n'uburyo 14850
cyabereye 14848
kuguma 14847
itswe 14842
Muz@@ 14839
abakoresha 14835
abyara 14830
Jenoside. 14825
Kib@@ 14825
indishyi 14822
abanje 14812
oboka 14810
waz@@ 14808
dush@@ 14803
kwifatanya 14802
atur@@ 14793
abav@@ 14787
n'abo 14786
giterane 14782
urubyaro 14774
yarah@@ 14774
kirere 14770
urwa. 14770
na@@ 14768
wand@@ 14766
yaby@@ 14765
gusobanukirwa 14760
-1@@ 14759
w’iki 14755
yarar@@ 14755
bifasha 14753
umuvandimwe 14750
kigaragaza 14740
iheruka 14739
imikoranire 14739
abaturage, 14735
bikomeje 14734
arushaho 14733
ayik@@ 14730
oga 14725
45 14724
twab@@ 14720
IZA 14716
aniwe 14713
ubuntu 14711
Urukundo 14710
kwis@@ 14703
enga. 14697
ili 14695
Hagati 14690
yemerewe 14689
inda, 14663
Lt 14662
5:@@ 14660
ukuri, 14659
amye 14641
y’ibihugu 14638
yeg@@ 14631
Dawidi 14618
virusi 14618
n’abanyamakuru 14613
Banyarwanda 14608
ateganyijwe 14608
». 14607
ambaye 14601
(N@@ 14599
babashe 14598
“Mu 14596
byatangiye 14594
abaj@@ 14587
hose. 14586
gufunga 14584
kwandura 14583
32 14580
Sibomana 14580
atangazwa 14579
uturere 14574
Abadepite 14573
Bug@@ 14563
Faustin 14557
ntiw@@ 14548
w’Igihugu 14546
amasengesho 14543
izi. 14537
amusaba 14534
kutagira 14528
kigaragara 14523
eze. 14518
ukar@@ 14516
Yan@@ 14511
ier 14509
e). 14502
!! 14498
umugabane 14498
aza. 14493
eho, 14492
gutyo 14492
imico 14492
njya 14485
oroh@@ 14484
90 14477
bamut@@ 14471
4:@@ 14468
eya 14467
urika 14467
wagize 14463
kubaza 14458
y'aho 14457
itabiriye 14454
uru. 14451
hanze. 14449
kaz@@ 14443
#@@ 14441
Umutwe 14440
yashyizwe 14438
uro, 14436
IH@@ 14433
atangaje 14428
x@@ 14417
uteye 14409
bagiranye 14407
yakoranye 14405
ukuri. 14401
Michel 14399
erana 14399
tum@@ 14398
(E@@ 14393
amuha 14391
Uwimana 14388
dosiye 14382
amahame 14381
z’ 14380
man 14378
kugwa 14372
adashobora 14370
ojwe 14369
abanyamahanga 14355
Cl@@ 14352
iman@@ 14350
anye@@ 14349
izemo 14345
bushobozi 14343
umunyeshuri 14341
ugeze 14340
gushinga 14339
yanga 14331
ugar@@ 14327
x 14325
Hano 14322
Igit@@ 14322
zinyuranye 14322
bushobora 14320
ING@@ 14317
Habimana 14316
Ubutumwa 14313
abadepite 14311
ubu. 14311
des 14309
Imikino 14299
Rwanda@@ 14299
rush@@ 14299
Umuk@@ 14297
n'abat@@ 14296
Rusesabagina 14290
onye 14290
kubikora 14282
ikiz@@ 14281
n’iz@@ 14278
ba, 14277
Ndetse 14274
ajwe 14268
agahita 14266
aniro 14263
ly 14262
iyobowe 14261
© 14257
7.@@ 14253
bafat@@ 14251
kitwa 14251
General 14248
umutekano, 14246
Mbese 14245
Umwaka 14245
afunzwe 14244
w’imikino 14242
erwe 14241
;@@ 14238
avugwa 14236
Ubut@@ 14233
ayig@@ 14233
kuj@@ 14229
ifuz@@ 14228
Jacques 14222
ora, 14219
iri, 14213
kubakwa 14204
yahoze 14203
ha 14192
ama, 14190
Isi. 14189
baganiriye 14179
umunyam@@ 14174
kwegera 14173
egereye 14171
ruzinduko 14170
erezwa 14169
anije 14158
eri. 14158
urikir@@ 14158
ifatwa 14155
Yehova. 14152
ezi, 14143
Af@@ 14141
bwanjye 14137
Bis@@ 14135
ereze 14133
ngamba 14129
kibazo. 14128
AMB@@ 14125
rumaze 14122
babone 14121
atazi 14117
nk’ 14117
Barcelona 14113
ant 14113
yishe 14108
aduh@@ 14107
abitabiriye 14102
Se 14101
gukubita 14099
eze, 14096
imis@@ 14096
3,@@ 14090
la@@ 14090
aragaje 14089
ibanda 14087
urire 14086
gushishikariza 14085
Isi, 14081
ujije 14074
Izo 14072
byatewe 14072
yihariye 14067
bashyize 14065
ini, 14064
ahind@@ 14063
n’am@@ 14053
gic@@ 14052
09@@ 14051
ego 14050
Ubur@@ 14046
undi. 14044
i(@@ 14043
enzi 14041
irya 14040
yahuje 14039
afatanyije 14037
bikan@@ 14037
kumenyekana 14036
bitarenze 14027
gusambanya 14026
Bityo 14022
tubikesha 14021
bihagije 14016
ntih@@ 14011
n’amahanga 14011
yim@@ 14010
ast@@ 14008
urisha 14005
VS 14000
Budage 13999
aham@@ 13997
zivuga 13997
aciye 13986
gukom@@ 13986
PR@@ 13984
anwa. 13981
unda, 13973
Gr@@ 13969
Ange 13961
ubar@@ 13961
mwuga 13955
w'igihugu 13946
inkiko 13943
Gahunda 13939
wamenyekanye 13937
Abakobwa 13933
isezerano 13932
ry’umupira 13932
n’iyi 13930
n’inshuti 13922
akagari 13917
inkomoko 13913
batangaje 13911
bitanu 13897
angamira 13896
ibaye 13890
n’ahandi 13888
muke 13882
ers@@ 13881
vuba. 13881
atung@@ 13874
atanze 13868
aragar@@ 13860
bacy@@ 13855
Gih@@ 13845
asohoka 13845
ew@@ 13845
CYANE 13844
Comment 13840
avamo 13840
itabi 13840
n’ibihumbi 13838
aje, 13837
hah@@ 13837
imbwa 13836
inye 13836
Yasabye 13835
bishya 13835
runini 13834
ifung@@ 13831
torero 13830
igiti 13829
Urugero 13827
aband@@ 13826
Yohana 13822
emerewe 13822
Git@@ 13821
Ns@@ 13821
ijisho 13816
aba. 13815
itumanaho 13815
z’amafaranga 13814
bakundana 13813
Mah@@ 13801
Karekezi 13796
kuvug@@ 13791
obo@@ 13787
atubwira 13784
ntag@@ 13782
ubir@@ 13779
izeza 13778
yemo 13774
im 13767
ombye 13762
C) 13761
amoko 13761
kujyana 13761
nit@@ 13761
08@@ 13756
erwa. 13755
ifash@@ 13750
ati”@@ 13749
n’ikibazo 13742
imigabane 13739
ukund@@ 13737
watangiye 13737
MTN 13735
umuc@@ 13732
ebera 13731
Iryo 13726
nkuru: 13722
urikirana 13721
uzi, 13719
bigoye 13718
ille 13717
iva 13714
ete 13713
twak@@ 13710
urwa, 13710
isoni 13708
:3@@ 13705
ushim@@ 13700
uzwe 13698
Abatutsi, 13687
unguye 13684
Kug@@ 13683
kumuha 13682
byatuma 13673
Samuel 13669
Cup 13668
baf@@ 13667
Icyakora, 13665
ibiryo 13663
ubiza 13662
kwinjiza 13661
ibara 13658
imv@@ 13655
bitandukanye, 13654
40@@ 13652
KW@@ 13652
rimaze 13649
bakaza 13648
sitasiyo 13645
ibikombe 13642
Antoine 13640
ekereza 13640
umurwayi 13634
bitwaje 13632
V 13628
injiza 13626
Nyamirambo 13623
ikirere 13623
wa.” 13621
kabone 13617
kubik@@ 13616
ishijwe 13605
EAC 13604
Ndayishimiye 13601
mashya 13597
rikorwa 13597
guta 13595
byayo 13593
ruhare 13591
UZ@@ 13589
cy’indege 13588
Paris 13586
z'u 13585
nyakuri 13583
kingana 13577
byihuse 13572
baram@@ 13568
gusohora 13567
ikim@@ 13567
Abagize 13563
kom@@ 13562
urwibutso 13562
mazina 13558
irinda 13551
inc@@ 13550
Ababyeyi 13545
zisaga 13543
par@@ 13539
Sp@@ 13531
ya, 13531
yafatiwe 13527
ayo, 13522
bushake 13520
biganjemo 13518
ahuza 13515
ham@@ 13510
Usibye 13509
nyamukuru 13509
abayeho 13507
n'abayobozi 13501
No 13499
rigena 13496
Akaba 13490
Nzeli 13490
Raporo 13487
umudugudu 13483
a). 13481
two 13479
Chelsea 13478
N 13473
umutekano. 13463
ifuriza 13462
asanze 13460
Umukinnyi 13458
ibish@@ 13456
ireme 13456
adufasha 13454
guhinga 13453
azam@@ 13452
n’imiryango 13452
obo 13443
bikorwa. 13439
es) 13436
n’ibihugu 13435
n’ababyeyi 13425
ibyumba 13423
Abatutsi. 13421
CHAN 13418
telephone 13417
n’umukunzi 13416
n’umw@@ 13416
biriya 13412
andik@@ 13406
Mush@@ 13405
ay 13404
ero, 13398
mv@@ 13398
oban@@ 13397
Francois 13395
ashira 13395
ihabwa 13394
umwarimu 13394
35@@ 13388
AHO 13388
02 13383
Munyakazi 13382
ukinira 13382
n’abas@@ 13381
asha 13373
imipaka 13373
atab@@ 13369
kwagura 13369
mwiherero 13369
emewe 13365
22@@ 13363
yarab@@ 13362
avugaga 13360
Iman@@ 13354
emereye 13353
gukwirakwiza 13344
filimi 13342
yiswe 13340
yabitangaje 13334
urwe 13332
e(@@ 13331
anda. 13330
kwicwa 13330
kwishimira 13329
ombaga 13326
ect@@ 13324
igenzura 13316
y’indirimbo 13311
ajyanwa 13310
barak@@ 13308
bitanga 13308
iteganya 13308
ayir@@ 13306
ayit@@ 13306
bakomoka 13304
ungu, 13303
Your 13297
ina. 13296
ijyana 13292
mikorere 13290
i’ 13289
apfuye 13287
Ishimwe 13284
ubwisungane 13283
emo. 13282
ukir@@ 13282
rugo, 13279
ASH@@ 13277
u: 13270
ahagaze 13269
Bah@@ 13268
o’ 13267
abakiriya 13264
Ed@@ 13257
ass@@ 13256
guhinduka 13256
Sena 13255
amahoro. 13251
abizi 13250
ubwami 13250
FIFA 13247
Burusiya 13242
umuganda 13240
000@@ 13239
akumva 13237
bemera 13235
Abarundi 13233
aramutse 13231
FC. 13230
n'ibindi. 13230
“Tw@@ 13227
ashim@@ 13225
bahagarariye 13222
ISH@@ 13221
nshaka 13216
zabo. 13215
bye, 13213
hose, 13212
bw’igihugu 13208
gak@@ 13208
anyuze 13204
yakunze 13202
nde 13201
nkaho 13196
hariya 13190
abanye 13189
bi 13189
izih@@ 13186
iyongera 13185
gusobanura 13174
twebwe 13174
wagiye 13167
enger@@ 13165
ndende 13165
Imibare 13163
amarira 13163
Umushinga 13162
YE 13161
por@@ 13161
ntaz@@ 13160
umusirikare 13156
est 13153
n’abandi. 13152
05 13150
Congo. 13147
y’agaciro 13146
yiyemeje 13145
ibonye 13142
dushaka 13141
ashe 13136
ts@@ 13136
usa 13136
guhimbaza 13134
Mul@@ 13132
M23 13131
orana 13124
irang@@ 13122
YO 13115
Amagaju 13114
akurikiranyweho 13114
2013, 13112
nabonye 13105
Ev@@ 13099
Zimbabwe 13092
ikibuga 13089
kubijyanye 13089
Jya 13088
byab@@ 13087
gukorerwa 13086
iterabwoba 13083
bwana 13081
erag@@ 13081
kuvugurura 13078
uhe 13068
", 13063
400 13062
itandatu 13061
kibazo, 13058
babik@@ 13057
agwa 13056
bashy@@ 13055
Young 13054
yeho 13054
ikib@@ 13051
asabye 13049
“Hari 13046
amafaranga, 13038
ubakwa 13038
ubuziranenge 13038
n'umugore 13032
ts 13031
kwik@@ 13030
Volleyball 13029
ucy@@ 13027
abarokotse 13021
kwe 13016
Yar@@ 13015
abaturanyi 13015
Ghana 13007
ezwe 13007
obwa 13006
195@@ 13000
gutunga 12997
akomoka 12996
aririmba 12996
byabereye 12991
ibim@@ 12990
bibaza 12988
yizeye 12985
kurangwa 12984
Iterambere 12983
amashyaka 12983
Super 12980
ubon@@ 12978
Chief 12974
Kat@@ 12974
Phone 12974
y’Iburasirazuba 12971
Imvaho 12966
inyamaswa 12966
ohoka 12964
Fred 12963
mir@@ 12962
intera 12954
Kigo 12953
Nyamagabe 12951
Bo@@ 12946
umupaka 12946
mpunzi 12942
yaras@@ 12942
nshuti 12941
kuramya 12939
bahora 12936
Bobi 12930
utanga 12929
igihombo 12927
Sosiyete 12925
mf@@ 12917
impuhwe 12913
ground 12911
expo 12909
ati:"@@ 12900
bashyira 12900
Mo@@ 12899
mugambi 12899
wig@@ 12899
Umushinjacyaha 12897
injyana 12897
CH@@ 12896
utw@@ 12896
irije 12893
abashe 12892
n’ubur@@ 12889
imyigaragambyo 12888
IBINDI 12887
bateye 12886
isaga 12884
ingiye 12883
12. 12882
OHEREZA 12879
ahagije 12875
ngombwa. 12871
n’ubutegetsi 12870
agarika 12866
mash@@ 12863
wik@@ 12862
urumogi 12859
6:@@ 12856
umenye 12853
EG@@ 12849
ukwizera 12845
ariko, 12844
anduk@@ 12843
UKO 12840
bizwi 12840
Prof 12838
Shyaka 12836
akazi. 12836
ishing@@ 12836
Y 12835
bifitanye 12835
anganye 12831
ifashishwa 12816
cyumweru, 12808
kuzaba 12807
gusohoka 12803
15. 12799
bashoboye 12798
wanya 12788
Igice 12786
rwiza 12781
rights 12780
ukwa 12777
eba, 12770
yaraye 12766
IRE 12763
twavuga 12759
21@@ 12756
bamuh@@ 12753
uraho 12753
ifatanyije 12750
imih@@ 12749
bidasanzwe 12748
izabera 12748
ard@@ 12747
gakomeye 12747
ets@@ 12744
yabitangarije 12741
yagerageje 12738
bw’Imana 12735
anira. 12733
ongerera 12732
Nyamasheke 12730
nyinshi, 12725
Menya 12724
bwabo. 12723
irimba 12723
amaj@@ 12721
cyatumye 12719
ushaho 12714
Ambasade 12713
wamaze 12713
uma, 12711
abarenga 12710
ubwandu 12709
ibitangaza 12708
ahembwa 12706
Ubwami 12704
Mutagatifu 12703
bwayo 12700
muti 12695
imyambaro 12693
Nyarwanda 12692
bazize 12692
batag@@ 12685
ine. 12685
Album 12683
REBA 12680
imara 12679
Magerwa 12677
anditse 12677
abatoza 12675
bafatanyije 12675
y’iyi 12672
biteye 12660
ee@@ 12656
rw’Igihugu 12654
Gisagara 12651
ati” 12650
embe 12650
Nshya 12643
afite. 12637
ikiri 12627
ani. 12626
una 12625
15, 12624
address 12622
nkiko 12622
umvise 12619
Com@@ 12618
Yohani 12616
obora 12615
hazaza 12614
atum@@ 12609
obanura 12604
kubas@@ 12602
ishwe 12596
L 12594
al, 12592
ZIHERUKA 12589
sinzi 12584
(+250) 12582
kompanyi 12577
ebye 12576
yabuze 12576
ashize 12575
ngira 12573
Ash@@ 12572
byacu 12570
o(@@ 12566
imu 12563
20. 12559
anire 12559
igaragara 12559
ugut@@ 12550
wabo. 12550
atsinze 12547
enerwa 12547
ombe 12546
wera 12546
yarimo 12544
[email 12543
RPPC 12540
jambo 12539
n’umukobwa 12539
(a) 12537
iriz@@ 12531
ibur@@ 12529
reserved 12526
UMUSEKE.RW 12521
(b) 12518
yitwaje 12518
Thomas 12516
Opp 12511
enc@@ 12511
Kalisa 12510
nyinshi. 12508
12, 12506
788888888 12504
asiga 12504
yashyizweho 12504
Mon@@ 12503
Iradukunda 12495
yadutangarije 12490
ric@@ 12489
Gash@@ 12486
w’umukobwa 12486
yashatse 12486
iherutse 12474
bum@@ 12472
Green 12470
by’ 12468
Ebola 12465
ba. 12464
Umuh@@ 12463
Icya 12457
eba. 12456
injiye 12455
Ubufaransa 12453
agaho 12449
amagaye 12444
ryita 12439
imbur@@ 12436
uteg@@ 12435
gukurikiza 12429
8.@@ 12428
niba@@ 12427
kuzuza 12423
umenya 12423
itangiye 12422
ivuze 12420
Maroc 12418
bushingiye 12418
ohora 12418
ishyize 12414
E, 12410
akagira 12409
adus@@ 12408
y’iki 12408
rupfu 12405
Abajijwe 12401
ile 12393
Burera 12392
bukungu 12390
ukanye 12388
bamug@@ 12387
ambara 12386
Ph@@ 12385
protected] 12384
turebe 12381
ahinduka 12380
Sunrise 12379
babarirwa 12378
biteganywa 12375
we.@@ 12373
ongere 12368
amagare 12367
ia. 12367
ibat@@ 12366
engwa 12364
ruhame 12363
cyah@@ 12360
& 12358
World 12356
�@@ 12353
amav@@ 12344
Umucamanza 12340
papa 12340
Aganira 12339
mubare 12334
nshinga 12332
twumva 12332
Indi 12328
n’ingabo 12326
adafite 12324
Ndi 12322
ibib@@ 12322
gukundana 12320
:4@@ 12318
cyaba 12317
yagizwe 12314
yakira 12313
06 12311
Kany@@ 12309
mushiki 12309
uhaye 12307
y’ubw@@ 12306
oror@@ 12302
@ 12300
TV 12296
asize 12293
azas@@ 12293
amadolari 12288
Umusore 12283
abakirisitu 12283
ishimwe 12283
anyiriza 12282
mazu 12276
hashingiwe 12267
ation@@ 12264
bikaz@@ 12264
ert@@ 12263
isit@@ 12263
bapfa 12261
“Nd@@ 12260
ukoresheje 12256
UD@@ 12250
bazah@@ 12249
hasigaye 12246
RDC 12245
aras@@ 12245
’’ 12245
bagakora 12243
zab@@ 12239
ishyurwa 12234
ambi 12230
ukeneye 12227
oza, 12225
kurenga 12216
bapf@@ 12213
ai 12211
baras@@ 12209
ereranya 12208
1/@@ 12206
kuzamuka 12206
Cristiano 12199
º 12199
kapiteni 12198
kitarenze 12198
ufat@@ 12197
akabona 12196
uzajya 12191
ambar@@ 12183
33 12179
umuhanga 12179
ujyana 12173
zigomba 12173
abinyujije 12171
arika 12171
erejwe 12166
muli 12157
bike 12156
barab@@ 12155
Kamonyi 12154
ie, 12154
Televiziyo 12153
bahisemo 12151
mwanzuro 12147
Ba 12144
enzura 12143
wahawe 12143
yaciye 12143
Ali 12141
ubukerarugendo 12141
Hanyuma 12140
you 12140
Roho 12138
ette 12137
Abisirayeli 12134
Hab@@ 12130
URA 12130
2021 12129
ini. 12125
ekura 12121
Yozefu 12114
kabo 12112
II 12110
batandatu 12109
bem@@ 12108
umuganga 12105
ab’@@ 12103
bwagaragaje 12103
ntim@@ 12103
ANGA 12102
n’amategeko. 12099
y’amezi 12095
gukira 12092
buc@@ 12090
ukan@@ 12089
4,@@ 12087
icyerekezo 12086
ryag@@ 12084
heza 12080
IYE 12078
oto 12078
Gisenyi 12077
erageza 12076
inzobere 12076
minota 12074
bahoze 12073
inga, 12073
uw’@@ 12071
yoh@@ 12071
ungo 12069
ukabona 12068
gukinira 12053
ian 12053
kwitaba 12046
band@@ 12044
karere, 12036
impeta 12032
IF@@ 12030
ons@@ 12029
kuzajya 12020
bemerewe 12019
wavuze 12017
ntiyigeze 12015
rwag@@ 12014
uze. 12013
imig@@ 12012
30, 12010
ibera 12010
yajya 12010
el, 12009
mwinshi 12002
amuka 11999
byemejwe 11999
Sem@@ 11998
masomo 11996
w'Akarere 11992
babag@@ 11991
mikuru 11989
Alphonse 11987
Michael 11982
ishyir@@ 11980
Dieu 11974
arat@@ 11971
–@@ 11971
Kub@@ 11969
UMWANDITSI 11966
irwa, 11966
Rwigara 11965
aje. 11962
akarengane 11960
ukugira 11959
n’umug@@ 11953
urura 11951
Gakenke 11950
Umukozi 11950
batagira 11950
ago 11949
yakinnye 11949
yize 11947
biteg@@ 11944
es. 11944
abarizwa 11943
akorerwa 11942
imuk@@ 11941
bwicanyi 11938
EK@@ 11931
ubwonko 11931
emo, 11927
Rubavu, 11926
kor@@ 11925
oo@@ 11925
n’abar@@ 11924
udushya 11917
uruza 11917
w’ingabo 11907
yishimira 11906
Kagame. 11905
keretse 11905
iwemo 11904
oreye 11904
Nsh@@ 11903
bahuje 11903
haruguru 11902
mibare 11902
bine 11901
2011, 11893
ukug@@ 11891
è@@ 11886
oroshye 11884
abavuga 11883
gukuraho 11883
banze 11878
Mag@@ 11874
soko 11872
yaw@@ 11871
Nyagasani 11869
n'abana 11862
04 11861
Airtel 11859
eyo 11858
Gatsibo 11857
babit@@ 11857
bakagira 11857
bawe 11857
hazaba 11856
ndumva 11856
Nim@@ 11854
afatanya 11853
iz’@@ 11852
ukwemera 11852
icur@@ 11851
ya. 11848
ifatanya 11847
eruka 11846
italiki 11845
kuboneza 11843
n’ing@@ 11843
yasubije 11841
amab@@ 11840
gushakira 11839
Nkusi 11837
Abari 11836
Magufuli 11835
ubije 11833
wem@@ 11833
byibura 11832
erekeje 11831
Mad@@ 11830
umwanditsi 11830
ikam@@ 11829
zitandukanye. 11826
ategereje 11825
igitutu 11825
burimo 11822
Liverpool 11821
Daniel 11816
banga 11813
engeje 11813
iruhande 11813
intandaro 11807
ezaho 11806
angaza 11802
Dj 11800
ryak@@ 11800
Burya 11798
amategeko, 11797
Ivan 11796
37@@ 11789
bapfuye 11788
babo, 11785
bw’ 11785
Abam@@ 11784
rud@@ 11778
Bak@@ 11777
Kin@@ 11776
amad@@ 11775
Ushinzwe 11770
bafasha 11769
bitekerezo 11769
atewe 11767
ungana 11766
Kayonza 11763
akozwe 11762
kunyereza 11760
ugenda 11760
yagiriye 11756
akaga 11754
unzi 11753
babasha 11744
w’iyi 11742
mad@@ 11741
Nshuti 11740
batawe 11739
kiciro 11736
aragaye 11735
Ferwafa 11732
id 11732
n’imy@@ 11731
George 11727
AKA 11719
cyanyu 11718
Koperative 11717
amafaranga. 11717
bwira 11715
ote 11714
?” 11713
gutura 11713
Anastase 11712
cye. 11711
igi 11711
kugirira 11710
yigisha 11704
irengero 11691
amun@@ 11690
Nsengimana 11689
Today 11689
witwaga 11688
eranye 11687
ikunda 11684
yabag@@ 11676
oni. 11675
KO 11673
Post 11671
bavugaga 11667
ubat@@ 11666
yayo. 11664
abamaze 11662
ero. 11662
y’Ubuzima 11661
Posted 11659
yamuh@@ 11657
eta 11656
gushora 11656
ikoranabuhanga, 11655
ine@@ 11654
Uhoraho 11649
Ham@@ 11645
busa 11645
majyaruguru 11643
umuj@@ 11643
hanze, 11639
Riderman 11631
abashoramari 11631
Or@@ 11629
byas@@ 11627
je 11627
birangira 11624
37 11623
Mali 11622
yabat@@ 11621
Urugero, 11620
oko. 11618
ubuvugizi 11615
bireba 11614
ihita 11614
ibas@@ 11613
Louise 11612
Mugabo 11612
kigiye 11611
ayim@@ 11606
cyayo 11604
akin@@ 11595
aregwa 11595
bashinjwa 11595
kugeraho 11591
ozi. 11591
w‟@@ 11590
EL@@ 11589
ererwa 11589
ahitamo 11581
Musanze, 11573
But@@ 11571
UH@@ 11571
amatsiko 11569
ibic@@ 11567
urumva 11565
uzuza 11564
yagejeje 11564
ishimye 11561
amira 11557
gituma 11556
ishi 11556
kuba@@ 11554
Bernard 11552
w’i 11552
babuze 11551
amatorero 11549
y'Epfo 11542
n’amafaranga 11540
byumweru 11537
imeze 11530
unda. 11529
igura 11528
(F@@ 11527
azize 11526
bakabona 11523
abakiri 11522
w’uyu 11521
bameze 11520
kuzirikana 11518
oro, 11518
we? 11517
gukora. 11516
yibukije 11516
Saa 11513
rwas@@ 11508
2010, 11502
Polly 11500
kabari 11500
Kanombe 11489
kizabera 11488
pe 11487
nawo 11485
ahindura 11483
Basketball 11478
demokarasi 11478
uwahoze 11477
mahoro 11475
imbi 11474
w’Umurenge 11474
kinyejana 11471
bihereranye 11466
bafana 11453
afashwe 11451
ubajije 11449
byerekana 11448
[xyz-ihs 11446
inzwe 11443
ambika 11441
bavug@@ 11441
kwangiza 11441
Tuyisenge 11439
ageza 11439
irwamo 11435
d'@@ 11434
ryitwa 11433
amura 11432
ishoboye 11432
u.” 11432
gaciro 11423
agend@@ 11419
babat@@ 11415
Komini 11414
babah@@ 11414
RD@@ 11413
kamwe 11412
ryose 11409
arura 11408
Ko 11406
Akenshi 11403
ahur@@ 11403
n’abakozi 11400
kurwana 11396
oj@@ 11383
imihango 11382
sita 11382
zikora 11382
2007 11379
rugo. 11379
ET@@ 11377
Rub@@ 11375
ashyir@@ 11375
ubud@@ 11375
arwaye 11373
Zambia 11372
adut@@ 11365
wa,@@ 11362
eje, 11360
imyiteguro 11360
air@@ 11359
y'Igihugu 11358
Inyarwanda.com 11355
ruhago 11349
ereye. 11346
bamur@@ 11344
Abagabo 11343
indi, 11343
muy@@ 11342
yarak@@ 11340
iteye 11339
mpuzamahanga. 11338
ene@@ 11335
atug@@ 11330
anwa, 11328
ivugabutumwa 11328
ter@@ 11328
bisobanura 11324
byoroshye 11322
rishya 11321
icuruzwa 11314
yashize 11314
uranye 11313
yateguwe 11310
Name 11301
ryabo 11301
amaguru 11299
aduha 11294
ishize. 11294
Uwitwa 11293
imyuga 11289
Christian 11285
habonetse 11285
ndimi 11282
(G@@ 11279
NA 11279
ume 11278
ibinyoma 11277
imvururu 11275
yamenyekanye 11272
eje. 11269
n’ubuzima 11269
kurenza 11264
yateg@@ 11263
10:@@ 11261
n’abagabo 11260
n’ingaruka 11256
by’amashuri 11243
cyicaro 11243
tugira 11240
uro. 11237
yatangije 11233
umujyanama 11232
yaran@@ 11232
agaciro. 11231
amatsinda 11229
ry’ 11229
yongeyeho 11229
Justin 11224
yik@@ 11224
Sa@@ 11221
azi, 11221
We 11220
(D@@ 11219
atsind@@ 11216
avugako 11211
byavuzwe 11210
azo 11208
inyeshyamba 11198
w’ejo 11198
amap@@ 11192
ity 11191
ushije 11190
I. 11189
Mor@@ 11187
Manzi 11185
izeye 11185
ani@@ 11183
Jules 11180
Gereza 11179
Prof. 11179
ingeso 11174
anzi, 11172
o" 11172
ibarizwa 11168
oresha 11168
ABO 11167
ngoma 11164
Umwuka 11163
wana 11161
agana 11158
tujya 11158
a/@@ 11154
Burasirazuba 11153
kigeze 11151
menya 11150
n’aba 11146
Niy@@ 11145
agarutse 11144
aruka 11141
ubunararibonye 11137
avuka 11135
kubih@@ 11133
Goma 11130
Huye, 11130
hoteli 11130
ingwa 11127
umushumba 11125
); 11122
yerekanye 11122
mbere@@ 11121
twifuza 11120
mijyi 11115
gusenya 11113
Bat@@ 11111
asimbuye 11100
akurikir@@ 11093
babih@@ 11091
toni 11087
burenganzira 11085
Ihuriro 11084
ikurikir@@ 11081
bizajya 11076
by’agateganyo 11075
ala 11073
angire 11073
ahar@@ 11072
ime 11071
yagira 11070
ca 11063
itaho 11063
E. 11057
gukuramo 11057
ZASOMWE 11055
N'ubwo 11054
C. 11053
irah@@ 11053
ain 11051
aterwa 11051
afungiye 11049
kat@@ 11049
Wine 11046
ntebe 11043
y’Amajyepfo 11043
buba 11041
Ex@@ 11037
Umubyeyi 11037
nyuma. 11037
ikeneye 11036
bukwe 11035
"T@@ 11033
ami 11029
barebe 11023
arak@@ 11022
uze, 11022
atwite 11021
07 11017
bangana 11014
National 11013
bashakanye 11010
n’is@@ 11007
194@@ 11006
urus@@ 11006
bitwaye 11005
Big@@ 11002
Mihigo 11002
Abanyamakuru 10999
Hassan 10999
ezaga 10999
yaranze 10998
11. 10997
oro. 10995
Baz@@ 10989
anira, 10988
baray@@ 10985
eyeho 10984
irijwe 10984
y'indirimbo 10983
URUBANZA 10981
kwitwa 10980
inja 10979
batewe 10976
abiz@@ 10974
amenyo 10973
Byari 10964
serivise 10964
umvira 10963
uwe, 10962
kan@@ 10960
imwe, 10957
Major 10956
inkweto 10956
Yesu, 10955
a?@@ 10952
n’umutekano 10952
rishyiraho 10952
enda, 10950
abatishoboye 10948
wanye 10940
Pl@@ 10936
ibuk@@ 10933
Abayahudi 10928
amazi, 10928
n’itangazamakuru 10923
ibe 10921
musozi 10921
n’abah@@ 10920
More 10919
CY@@ 10918
ACP 10917
Abahanzi 10916
gucika 10915
abakoze 10912
les 10911
uva 10909
09 10906
ugera 10902
Rwand@@ 10898
ubwigenge 10898
Nyaruguru 10897
ereye, 10897
iss@@ 10895
bw'u 10893
uli 10888
.) 10887
34 10886
intama 10886
baho 10880
NY@@ 10879
umwanzi 10879
iterambere. 10875
bitab@@ 10873
arib@@ 10870
aruk@@ 10870
eraho. 10870
zagiye 10868
yarangije 10863
baturuka 10862
Noheli 10861
hegitari 10857
iyemeje 10855
ukumva 10852
ohoye 10851
impuguke 10849
2004 10848
orohera 10848
rusanga 10848
ugura 10848
2014. 10846
kubir@@ 10846
Ernest 10844
abagaragu 10844
radiyo 10843
oraho 10840
urukingo 10840
Bus@@ 10837
umbi 10833
n'iyo 10831
y’igikombe 10826
Abafana 10825
Frw. 10825
bitangazamakuru 10816
urana 10816
urut@@ 10816
06@@ 10815
Gatete 10814
ide 10813
gusangira 10812
Amakipe 10811
n'ubuyobozi 10811
19, 10809
ambere 10805
sp@@ 10805
Center 10802
Kenyatta 10801
zigamije 10800
zi 10794
Sports. 10792
ens@@ 10791
H 10789
son 10788
e?@@ 10786
u.@@ 10784
uruhande 10782
naje 10780
gishize, 10779
ABA 10775
yatsinzwe 10773
atwaye 10769
14, 10766
Mir@@ 10766
Kayiranga 10763
Tags: 10758
urusengero 10758
yateguye 10757
pl@@ 10756
y’umukino 10756
Amafaranga 10755
wambaye 10755
dusanga 10750
yonyine 10748
AV@@ 10747
n’iterambere 10743
ongeye 10743
ien 10742
umupolisi 10742
bugaragaza 10739
akem@@ 10738
anijwe 10738
udafite 10737
unge 10734
Marines 10733
icyayi 10731
ureba 10728
karere. 10726
n’ikigo 10723
ishuri, 10720
buhamya 10717
murumuna 10716
Igih@@ 10714
imfura 10714
Njye 10713
siko 10713
en, 10711
Danny 10710
iri. 10709
awe@@ 10706
emura 10706
magingo 10705
ue 10705
May 10700
ibiteye 10700
ibyavuye 10699
36 10698
kwihangana 10697
oraga 10696
yashimangiye 10694
abategetsi 10692
kwic@@ 10688
East 10687
Aimable 10685
abikor@@ 10684
ubonye 10684
Ug@@ 10682
kigomba 10682
Bibiliya, 10680
abashakanye 10675
gukora, 10671
bahur@@ 10670
n’igihugu 10670
anyi 10669
ryayo 10659
akanye 10658
batw@@ 10654
kwiyamamariza 10653
AMAFOTO 10648
kurwara 10647
bakoraga 10638
Kinyarwanda 10637
byabo. 10637
anyura 10634
CYA 10631
berekeza 10628
numvaga 10628
umusoro 10628
i". 10626
ibiz@@ 10625
aire 10623
bikom@@ 10622
zawe 10614
akabariro 10613
bitaz@@ 10610
ishingiro 10610
imicungire 10607
ukomeje 10606
kubohora 10605
RWA 10603
w'akarere 10600
rubyiniro 10597
kwitabwaho 10595
mutungo 10595
Ibibazo 10591
Sol@@ 10588
Team 10587
cyumweru. 10585
Kenya. 10582
TGI 10581
ataha 10579
irango 10578
nez@@ 10574
wash@@ 10574
angurira 10571
ibyo, 10568
ibibi 10567
ugamije 10567
ihe 10565
mabi 10565
Jo@@ 10563
ahagarariye 10562
ashoboka 10561
Muhire 10560
Njyewe-“@@ 10559
icyuma 10558
obor@@ 10554
Imodoka 10552
abasaga 10552
agatifu 10552
kiza 10552
Kabuga 10550
ababa 10548
Maze 10541
Bufaransa, 10536
dukwiye 10534
ton 10530
not 10528
atinya 10527
habereye 10527
me 10525
iganwa 10524
obanurira 10523
kiv@@ 10522
utsa 10522
abazwa 10520
n’abakinnyi 10520
ée 10519
12:@@ 10518
nkunda 10517
uregwa 10516
bwih@@ 10514
akekwaho 10512
ateza 10512
Amb. 10511
ze. 10509
ord@@ 10507
rukora 10504
n’iya 10503
Centre 10502
REG 10502
aturutse 10502
ereke 10500
agatoki 10496
navuga 10495
Senderi 10491
angaga 10491
icyicaro 10491
utwo 10490
!!! 10489
cye, 10489
n’umwana 10488
yishy@@ 10487
yakuye 10485
Uk@@ 10483
ki 10482
tangazo 10482
yabonaga 10478
Bavuga 10477
IND@@ 10477
korali 10477
isoni, 10473
ikaze 10472
masoko 10470
EZ@@ 10469
omye 10468
amaf@@ 10467
imvune 10467
ihind@@ 10466
imbere@@ 10466
makosa 10466
ost@@ 10466
shyaka 10463
rw’igihugu 10460
zitari 10460
ngomba 10459
nk’umuntu 10459
yemereye 10459
abanzi 10458
amush@@ 10455
anje 10455
0, 10454
isemo 10453
oba 10450
yabig@@ 10444
ambura 10442
ishaga 10441
kumenyekanisha 10440
yinj@@ 10439
AND@@ 10438
Rukiko 10438
5% 10435
ne 10434
y. 10433
for@@ 10427
Inspector 10424
inze, 10424
ashakaga 10423
inyuma, 10421
ungu. 10421
yumvise 10417
birenze 10414
Pascal 10413
batekereza 10411
esa 10410
11:@@ 10408
biny@@ 10408
9.@@ 10405
muntu, 10405
bafite. 10404
Primus 10403
ANY@@ 10402
bumenyi 10400
CECAFA 10399
— 10399
One 10397
eli, 10394
Murakoze! 10392
gatatu, 10392
TW@@ 10391
bajyaga 10391
gutakaza 10390
babashije 10386
mitima 10385
guhana 10384
Leave 10382
i" 10380
Rutsiro 10378
atsi 10377
Tshisekedi 10370
n'uwo 10369
zaba 10369
byanze 10368
kung@@ 10367
aya, 10366
ive 10362
bashim@@ 10359
Nyamwasa 10355
ameny@@ 10355
ashoboraga 10354
François 10351
Alexis 10350
Muny@@ 10346
n’ibigo 10346
1000 10343
Abash@@ 10341
abuze 10341
batab@@ 10338
y’ubuzima 10338
ifumbire 10337
u? 10336
baherutse 10334
ube 10334
isho 10333
Abahutu 10332
itamo 10331
Star 10330
akara 10330
n'umuryango 10329
iterwa 10327
yatangajwe 10326
biranga 10322
our@@ 10321
38@@ 10319
urutse 10313
Alex 10311
Radiyo 10311
egukana 10310
Em@@ 10305
bazwi 10304
igihugu@@ 10300
30. 10299
iyem@@ 10299
Murekezi 10298
baguye 10295
hashobora 10295
n'abag@@ 10293
Mose 10291
b’i 10291
umuny@@ 10291
anamo 10289
ie@@ 10281
ol 10279
basa 10278
Janvier 10275
ubwishingizi 10274
Sim@@ 10269
n'ikipe 10269
y'imari 10268
angira. 10267
yakundaga 10265
cyatangaje 10264
mukozi 10263
ukunze 10262
kiny@@ 10259
gushimangira 10257
amabanga 10253
ikwirakwira 10253
ujuje 10253
rwibutso 10252
UC@@ 10250
04@@ 10248
waho. 10248
yand@@ 10247
hejuru. 10246
ungabanya 10246
ozo 10244
umve 10244
IV@@ 10243
gutabara 10240
bukuru 10239
guhatanira 10239
inga. 10239
mwese 10238
Buhinde 10234
icara 10234
yunze 10233
indwa 10231
umba, 10227
use 10227
amikoro 10221
utaz@@ 10221
bitabo 10219
incuti 10219
basuye 10218
yongeraho 10217
ashinja 10216
obanuye 10216
eur 10213
yataye 10211
umup@@ 10210
03 10206
umusaza 10205
umud@@ 10203
De 10202
irizwa 10201
awe. 10196
barushaho 10194
guf@@ 10194
zigiye 10191
amije 10181
tuvuga 10181
tw'@@ 10181
ambir@@ 10179
n’ihazabu 10178
Espagne 10177
Madame 10176
(B@@ 10174
As 10174
Intego 10174
urebe 10172
abashy@@ 10168
ando 10167
wita 10167
,000@@ 10163
indira 10159
w'ikipe 10159
uzuma 10158
yombi. 10157
Jimmy 10154
Yves 10154
irwaga 10153
Butare 10149
:5@@ 10148
anura 10148
guhagararira 10140
ufitiye 10140
ennye 10138
Imiryango 10137
Bush@@ 10132
nj@@ 10132
y’Epfo, 10127
Bivugwa 10121
miriyoni 10119
Muhanga, 10115
erwa, 10112
ore. 10111
ain@@ 10109
bareba 10109
ahagar@@ 10108
batak@@ 10108
irwa. 10108
ruvuga 10107
cyab@@ 10104
Mutesi 10101
Ser@@ 10098
zitandukanye, 10097
Pariki 10095
2012, 10093
ito 10093
!” 10092
fr@@ 10092
mubyo 10091
n'inzego 10089
Ubuh@@ 10088
n’ik@@ 10084
gusiganwa 10083
sit@@ 10079
zak@@ 10079
ikoranabuhanga. 10075
n’ibintu 10072
ibo 10071
kubyo 10071
n'amategeko 10071
hano, 10070
ement 10066
Imyaka 10065
150 10064
..@@ 10063
ihame 10063
obe 10062
ejejwe 10061
ho, 10060
Umusigiti 10058
gikom@@ 10051
ikwa 10051
itaz@@ 10051
'' 10050
isuzuma 10050
n’umut@@ 10050
ibikomoka 10049
miti 10049
Diyosezi 10045
a] 10044
ett@@ 10040
y’amatora 10040
batangaza 10036
we; 10034
ace 10032
dukeneye 10029
mbaraga 10028
urub@@ 10027
° 10027
yasize 10025
amacakubiri 10024
nagiye 10020
baha 10015
Sugira 10012
gusinya 10010
batera 10008
May@@ 10004
birinda 10004
aniriza 10002
ubutunzi 10002
nkora 9999
For@@ 9998
er. 9998
akug@@ 9997
emye 9996
itse, 9989
hamwe, 9988
Kevin 9986
urumuri 9986
Mud@@ 9985
uruzinduko 9985
anuka 9984
kurera 9983
ategura 9982
abakristo 9981
ashyikirizwa 9981
imigambi 9980
By 9976
ibirayi 9973
kubig@@ 9973
oma, 9973
Busingye 9972
ifunguro 9969
itse. 9969
mahirwe 9969
rwand@@ 9969
ugus@@ 9969
ibah@@ 9968
anganya 9965
erageje 9960
byibuze 9950
eshe 9950
Amagambo 9949
36@@ 9948
ntuz@@ 9947
babwiye 9942
gipimo 9936
icuruza 9935
ubahirije 9926
KUB@@ 9923
kutagaragara 9923
17, 9922
Producer 9922
(s@@ 9921
PS@@ 9921
kwishyira 9916
om 9912
imirwano 9911
maj@@ 9911
naba 9911
Mbega 9910
interineti 9910
n’abari 9910
yerekeje 9910
bakir@@ 9909
haje 9909
Teta 9908
isengesho 9907
Nar@@ 9906
orer@@ 9905
yifashishije 9905
iteganyijwe 9904
Av@@ 9900
bihuriye 9898
anaho 9896
amategeko. 9894
rigizwe 9892
iburanisha 9891
un 9888
ubusa. 9887
irindi 9884
bazira 9882
kiba@@ 9880
ico 9870
ubujurire 9870
ubwenegihugu 9869
ishuri. 9868
yabon@@ 9867
emwe 9864
ubiz@@ 9864
ibash@@ 9863
oro@@ 9863
mashyamba 9852
ubaho 9850
ama. 9842
Bwongereza, 9841
oherezwa 9840
cyawe, 9839
ziba@@ 9837
47 9836
Nahimana 9836
yinjira 9834
ashak@@ 9832
ikoresh@@ 9829
Dr@@ 9826
Yesaya 9822
intebe 9820
Cote 9819
MENYA 9818
ko, 9815
Bl@@ 9812
nsanga 9803
ener@@ 9801
18, 9796
York 9796
yaram@@ 9795
aburira 9793
nkengero 9792
n’umur@@ 9789
25, 9785
38 9783
litiro 9783
badashobora 9779
will 9775
ahakana 9774
imye 9772
rigira 9769
w'Intebe 9769
elle 9768
ahe 9767
angura 9767
foto 9766
bwiye 9762
umuv@@ 9762
abajijwe 9758
gusezera 9758
ute 9757
ge 9756
wamamaye 9756
gutegereza 9755
hakenewe 9755
RWANDA 9754
da 9754
mutekano 9749
imirongo 9746
Ber@@ 9742
“Ntabwo 9741
5,@@ 9740
MW@@ 9738
amagar@@ 9737
anze. 9735
butuma 9732
ibirego 9731
Alain 9730
oreshwa 9729
USH@@ 9725
ugize 9723
Koko 9720
musaruro 9720
ohotse 9719
Amashuri 9716
ruhando 9715
11, 9713
e/@@ 9711
ukaga 9710
abakandida 9709
ashya 9709
abafatanyabikorwa 9707
mwarimu 9704
ekwa 9703
SH@@ 9701
amafunguro 9700
14. 9699
icyifuzo 9699
umushoferi 9699
bizag@@ 9695
nahise 9694
ubuza 9693
uga, 9693
Albert 9692
imuh@@ 9692
kumufasha 9684
Ndayisenga 9682
cyamunara 9682
(c@@ 9681
icyuho 9679
Christopher 9678
yish@@ 9678
08 9676
abapf@@ 9675
myiza, 9671
bitag@@ 9668
Uku 9667
ohereje 9667
wese. 9667
Her@@ 9666
enyekanye 9666
gushidikanya 9666
100@@ 9665
yasohotse 9665
ibivugwa 9664
iburyo 9664
Kas@@ 9657
Zimwe 9657
z’umwaka 9656
ashyizeho 9655
Rose 9654
Bit@@ 9653
untu 9653
imfungwa 9650
izag@@ 9650
ikorerwa 9647
on. 9647
Simba 9646
ikazi 9646
indangagaciro 9642
tatu 9642
Ngororero 9641
our 9641
bikag@@ 9640
Un@@ 9638
0. 9636
Abenshi 9636
kwihutisha 9636
Col. 9633
ifitemo 9630
kweg@@ 9630
abu 9629
enyesha 9629
politike 9629
uzug@@ 9629
(Ifoto/@@ 9627
ikije 9627
ivugwa 9627
new 9626
amarangamutima 9623
Christ@@ 9622
Uwase 9622
n’iy@@ 9619
rukumbi 9617
byos@@ 9616
yamug@@ 9616
05@@ 9615
AJ@@ 9615
Arusha 9613
mig@@ 9613
uzi. 9613
y’amavuko, 9613
Kor@@ 9611
abacitse 9608
ahise 9607
awe, 9607
nay@@ 9607
agezweho 9606
nas@@ 9606
manza 9602
Bab@@ 9600
afite, 9599
erej@@ 9598
Ubushinwa 9596
January 9594
utwaye 9593
gushize 9592
oza. 9592
yo@@ 9590
Aline 9585
anavuga 9585
igishwa 9585
gukusanya 9584
ushize. 9582
inyota 9576
y'isuzuma 9573
Buh@@ 9570
hejuru, 9569
isiganwa 9569
wasangaga 9567
va 9563
indi. 9562
zish@@ 9562
600 9561
Bel@@ 9560
Yego 9560
Bibiliya. 9559
IGIHE.com 9559
kuyir@@ 9557
If@@ 9556
yerek@@ 9552
SC 9551
zas@@ 9551
Mac@@ 9549
cyatangiye 9546
Dus@@ 9544
nijoro 9544
ugana 9544
“Tur@@ 9544
ikigega 9543
muntu. 9542
barwaye 9537
kubit@@ 9537
niy@@ 9537
Jeanne 9535
y’Ubur@@ 9535
ati:@@ 9534
ereyemo 9534
gupima 9534
Paccy 9533
IL@@ 9532
mubano 9531
eshy@@ 9529
birashoboka 9526
ivuga. 9526
Soma 9525
azanye 9522
ibyiciro 9522
um 9519
gushy@@ 9517
Val@@ 9513
unze. 9512
EB@@ 9511
abazi 9508
y’Amajyaruguru 9507
ekerez@@ 9506
iyo@@ 9505
16, 9504
_@@ 9504
kwereka 9504
/201@@ 9503
hagomba 9503
bagerageza 9502
n’Umuyobozi 9502
obya 9502
twas@@ 9502
n'umugabo 9500
Dj@@ 9499
makumyabiri 9498
bo, 9494
Nyabihu 9492
byem@@ 9492
Karangwa 9491
Senateri 9491
La@@ 9488
ishak@@ 9488
avuzwe 9487
baye 9487
Matayo 9486
Brazil 9485
wa; 9485
kongerera 9483
gusengera 9477
y’abana 9476
Inzu 9475
ugire 9472
bahanganye 9471
nkuru; 9465
ubuhanuzi 9465
Us@@ 9463
kiyaga 9460
ambira 9459
oranye 9458
babir@@ 9457
akomeze 9455
NG@@ 9451
ibyamamaza 9451
bazakomeza 9450
Haruna 9449
abahagarariye 9449
Qu@@ 9443
03@@ 9442
obok@@ 9439
bidakurikijwe 9436
cyas@@ 9435
irire 9432
bi@@ 9431
omwa 9427
urwamo 9423
ur 9422
w’umun@@ 9422
butemewe 9421
itora 9420
gashinzwe 9419
ongeraho 9419
umeze 9417
banduye 9416
ibisebanya, 9415
Witandukira 9414
bize 9414
Ari 9413
bivangura; 9413
ye.” 9413
Yes@@ 9412
ingero 9411
ozwe 9410
twaba 9410
wav@@ 9409
ahera 9408
ola 9408
gup@@ 9405
ziterwa 9402
babe 9401
indimi 9400
n’um@@ 9400
Igis@@ 9398
ifit@@ 9398
ngengo 9398
innye 9397
rigenga 9395
Guhera 9394
menshi, 9394
yi, 9393
Abanyarwanda. 9390
IP 9390
ubusambanyi 9389
izig@@ 9386
Boys 9384
kwicara 9382
yatubwiye 9381
Awards 9380
orohereza 9378
Izina 9377
Kut@@ 9375
umbuye 9375
umuhanuzi 9373
zabo, 9369
Iv@@ 9365
abatari 9364
angamiye 9363
p. 9357
Nat@@ 9356
oze. 9353
duto 9350
tr@@ 9350
Edouard 9347
ashyushye 9347
ahoze 9346
gicamunsi 9345
iyumv@@ 9344
ubwire 9344
Bujumbura 9343
ode 9343
maz@@ 9341
wabo, 9341
Sitade 9337
byaranze 9337
kurush@@ 9336
urwango 9336
wese, 9334
Jose 9332
bakumva 9332
De@@ 9331
z’Amerika 9331
ubira 9328
kiy@@ 9327
naryo 9327
ashi 9325
watsinze 9324
1-0 9321
kuyis@@ 9319
Group 9316
atangajwe 9316
Butera 9313
n'uyu 9313
amufasha 9311
bye@@ 9309
zigaragaza 9309
sitade 9308
Isirayeli 9307
urukundo, 9307
“Iyo 9307
Njyanama 9306
ndashaka 9306
yacu: 9306
CP 9304
ole 9303
yacu, 9303
bakoreye 9301
yumvaga 9300
umwimerere 9299
amasasu 9296
rwose. 9296
ungiye 9296
Abafaransa 9291
mpinduka 9289
gusimbura 9288
ibigori 9287
hagira 9282
izakomeza 9282
oherereza 9282
wanditse 9281
ugizwe 9278
kigamije 9277
aki 9276
kumv@@ 9273
oph@@ 9273
zanjye 9271
haza 9270
gutya 9269
ansh@@ 9266
ingorane 9266
rye, 9266
kiliziya 9264
gutangwa 9259
b’Imana 9258
itabirwa 9257
agarariye 9256
wiga 9256
barindwi 9253
ahat@@ 9251
imbibi 9251
Nyakwigendera 9249
bafatiwe 9249
bafatwa 9249
Kom@@ 9248
RE@@ 9247
agakiza 9241
avutse 9241
turag@@ 9240
ushya 9240
asoza 9237
Ubwongereza 9236
munyarwanda 9235
uruz@@ 9234
Uwizeyimana 9233
habura 9232
TV@@ 9230
kaga 9229
A: 9228
cy’isi 9228
y'abaturage 9227
Mig@@ 9226
/2016 9223
w’intebe 9223
nizo 9222
Afric@@ 9220
baze 9217
rishobora 9217
44 9216
imboga 9216
Munyaneza 9212
abut@@ 9212
anduye 9212
ikunze 9212
SHIKAMA 9209
ubusabe 9207
ukomeze 9206
bator@@ 9205
enyekana 9202
Ga@@ 9201
n’amategeko, 9201
yatuma 9200
bahungiye 9199
igic@@ 9199
umunyezamu 9199
Abanyamerika 9198
uwe. 9193
afash@@ 9192
n'umuyobozi 9190
babur@@ 9186
West 9183
nir@@ 9183
yakiriwe 9183
Hag@@ 9180
olog@@ 9179
twabonye 9179
umusifuzi 9176
res@@ 9172
Wal@@ 9168
bw’umwuka 9168
igare 9166
Umuhanzikazi 9165
yakom@@ 9165
arangira 9163
arw@@ 9161
Website 9159
inzitizi 9158
video 9158
13, 9157
ziy@@ 9155
eho@@ 9154
iki, 9153
ont@@ 9152
ubaye 9152
ubutabera. 9152
Nairobi 9151
akurikirana 9150
Jos@@ 9149
oye, 9148
ririmo 9145
imyanda 9144
by’ingenzi 9143
agac@@ 9142
bukangurambaga 9141
y’icyiciro 9141
kurebera 9138
Birumvikana 9132
Re@@ 9132
burasirazuba 9132
kubyaza 9132
runaka, 9131
-0@@ 9129
n’ikinyamakuru 9127
ategeka 9126
afitiye 9125
twose 9124
amba, 9122
aguye 9120
wavutse 9120
z’ijoro 9118
dutandukanye 9115
Cong@@ 9112
we: 9112
Umwanditsi 9111
ubuz@@ 9111
ifaranga 9110
ibyifuzo 9107
Agaciro 9105
erwaga 9103
mukecuru 9102
n’umuk@@ 9101
Amaze 9097
iy'@@ 9097
yavukiye 9097
icyaha. 9096
akig@@ 9094
45@@ 9093
eshye 9093
y’Umuryango 9092
abakristu 9085
kwirukana 9085
eme 9083
),@@ 9082
Gasabo, 9082
ath@@ 9082
henshi 9080
Abapolisi 9079
inn@@ 9078
ashye 9077
nyigisho 9076
eshwa 9073
ay’@@ 9068
yakora 9068
kugana 9067
n'ubundi 9067
umusaruro. 9066
imishyikirano 9064
kwezi. 9063
akoreye 9062
ikorana 9062
isobanura 9062
awa 9057
kwifashisha 9056
ahabugenewe. 9054
n’ir@@ 9054
Sida 9051
02@@ 9049
abazungu 9049
n’umun@@ 9049
babayeho 9046
cl@@ 9045
Gitwaza 9043
ibikomere 9043
y’umupira 9043
tumwe 9042
a' 9038
gicuti 9033
abug@@ 9032
atah@@ 9031
ot 9030
Kwibuka 9028
bazag@@ 9024
mih@@ 9024
ntibar@@ 9024
Thierry 9023
imish@@ 9022
ni@@ 9021
umwanda 9021
Saint 9020
coronavirus 9020
ern@@ 9020
Wifuza 9018
karindwi 9018
igaye 9013
rushobora 9011
ikizamini 9009
abatavuga 9007
ucur@@ 9007
uhagije 9007
Kapiteni 9003
ro 8999
iqu@@ 8989
iger@@ 8988
twakw@@ 8988
y'umwaka 8988
bizeye 8987
ubum@@ 8986
aniriye 8983
menshi. 8982
yujuje 8981
zina 8979
ubuhanzi 8978
aruh@@ 8977
itanye 8975
2003 8971
kwirukanwa 8969
Nyobozi 8968
co 8968
Coronavirus. 8967
akababaro 8967
ihanganira 8967
anzwe, 8963
otse 8963
guhamagara 8962
ihaye 8962
yitabiriwe 8962
utur@@ 8960
kwamagana 8959
muns@@ 8958
by‟@@ 8956
ntiyari 8956
ati:” 8955
kwegura 8955
n’itsinda 8955
June 8954
muzima 8953
Celestin 8952
kwaka 8952
saba 8949
ubwir@@ 8949
yamus@@ 8949
ingwate 8948
Gitifu 8947
Komiseri 8947
Ger@@ 8946
13. 8943
kugendera 8943
biciye 8942
icyakora 8941
bu@@ 8939
ubura 8939
Dream 8935
obore 8934
Bari 8932
iyihe 8932
Gik@@ 8931
umura 8928
ahaye 8926
ubakira 8926
uburemere 8925
Abanyarwanda, 8924
n’ubushobozi 8923
Biz@@ 8922
w’abibumbye 8922
anyi, 8918
imishahara 8913
y'uyu 8912
an. 8911
erwamo 8911
imeny@@ 8910
nkuru, 8909
UNG@@ 8905
ntitw@@ 8905
inkoni 8904
w’Intara 8900
Kabera 8899
myigaragambyo 8899
Ro@@ 8898
umuceri 8897
iho, 8894
ye,@@ 8894
baruwa 8893
kimwe. 8893
majyepfo 8893
ukaz@@ 8893
(P@@ 8891
sports 8890
ikub@@ 8888
(2) 8886
oma. 8886
urikiye 8885
azwa 8882
bikora 8882
University 8877
bukabije 8877
itsi 8877
myitwarire 8877
art@@ 8876
avugwaho 8874
binyamakuru 8874
zin@@ 8873
ta 8872
bahitamo 8871
porogaramu 8871
Abanyafurika 8868
aranira 8868
umujinya 8864
He@@ 8860
zigezweho 8860
Es@@ 8858
Gilbert 8858
yavuzwe 8858
arangiza 8852
Amasezerano 8851
bashakaga 8851
intanga 8848
Lionel 8843
ufi 8842
itor@@ 8841
babanza 8840
ubukana 8840
%@@ 8839
Yakobo 8839
erere 8839
n’imibereho 8837
ubun@@ 8837
Times 8835
× 8835
ze, 8833
]@@ 8830
Bal@@ 8828
emer@@ 8828
bumaze 8827
ibisasu 8825
imipira 8823
uma. 8821
Twagiramungu 8820
ashyizwe 8818
gushyingura 8818
baganira 8817
bij@@ 8817
umum@@ 8815
aran@@ 8813
que 8813
abashyitsi 8808
izwa. 8807
n'abanyamakuru 8807
urukundo. 8806
atoza 8805
igipolisi 8805
budasanzwe 8803
bufasha 8800
umufasha 8795
radio 8792
February 8791
(Amafoto) 8790
Amateka 8790
Mil@@ 8790
Music 8790
byamaze 8790
ifuje 8787
24, 8786
ihut@@ 8786
omo 8786
gitego 8785
iyong@@ 8785
tweet 8782
nyir’@@ 8781
Church 8780
batsinze 8780
guhashya 8780
andura 8779
Sheikh 8778
Party 8777
amajyambere 8776
uzaga 8774
z’amadolari 8774
ihazabu 8772
Dar 8770
zijyanye 8770
ijeje 8769
andukanya 8768
hagaragaye 8767
yabar@@ 8766
angiriza 8765
Ruguru 8761
mwuka 8761
y'amavuko 8761
“Nt@@ 8761
Libya 8757
amac@@ 8757
Lib@@ 8756
n’indwara 8755
Nizeyimana 8753
anze, 8752
Nyina 8751
bikorwa, 8750
amadorali 8747
yabivuze 8747
gutor@@ 8746
umi 8746
gishya 8745
2006 8743
ifungwa 8743
umana 8743
18. 8741
avugana 8740
Umutekano 8737
batah@@ 8735
mugihugu 8733
ihene 8730
Col@@ 8729
Ejo 8729
cyaro 8729
gukurikiranwa 8727
arasaba 8726
udasanzwe 8726
myanzuro 8724
yaryo 8724
Funga 8720
rwacu 8720
wic@@ 8720
Bon@@ 8713
amashami 8712
bamenya 8711
n’abahanzi 8710
Mohamed 8709
Joe 8707
Platnumz 8704
ingagi 8704
2009, 8703
Bay@@ 8703
giciro 8703
yos@@ 8703
amakuru. 8702
ekeye 8699
$ 8698
anza, 8697
dis@@ 8697
rw’ 8697
amagana 8695
akiriye 8694
bakurikir@@ 8694
ada 8693
Yak@@ 8688
kwigarurira 8687
ibyag@@ 8684
bikurikira: 8683
igihe, 8682
Murenzi 8681
amakoperative 8681
zitwara 8681
Nyafurika 8680
abish@@ 8680
igire 8679
angira, 8678
embera 8677
ngarukamwaka 8675
imwe. 8674
wa? 8673
Mozambique 8666
kazi, 8666
bongeye 8665
gafite 8664
bensh@@ 8663
ijwe. 8662
yaramaze 8659
MURI 8658
bugamije 8658
gihembwe 8657
guhirika 8657
bos@@ 8655
yemejwe 8655
ED@@ 8654
wi, 8652
Uwam@@ 8651
akomereza 8651
mibonano 8651
umuhanzikazi 8651
bubi 8650
buhe 8650
Be@@ 8649
gukomera 8648
ENG@@ 8644
my 8643
atumye 8641
ibasha 8639
w’abana 8637
afunze 8635
urundi 8635
AU 8633
inywa 8633
ry’u 8630
Valens 8629
ary 8629
ry’Umuryango 8627
VC 8626
abikoze 8625
eru 8622
izamuka 8622
Ibindi 8621
aniraga 8621
kigasibwa. 8621
ibivugwa/ibisubizo 8620
ige 8619
baracy@@ 8618
a.’ 8615
kazi. 8612
ruba 8612
ekereje 8609
idafite 8609
Kamanzi 8608
Mutabazi 8608
enda. 8608
Abahanga 8603
OT@@ 8603
ibipimo 8603
Ndayisaba 8602
Yanga 8599
bitaba 8598
n’uwa 8597
Serena 8596
bikomeye. 8596
anjye 8595
penaliti 8595
Gospel 8593
kijyanye 8593
anyir@@ 8589
byateye 8589
Njyewe 8588
b’abakobwa 8588
CN@@ 8586
n'indi 8586
y'abantu 8586
abane 8583
17. 8582
mpuzamahanga, 8582
acur@@ 8580
bakunzi 8572
u) 8571
Gor 8566
uburinganire 8566
Nyab@@ 8565
Sant@@ 8565
amenyekana 8565
No@@ 8564
39 8562
batigeze 8560
ereho 8557
gupf@@ 8557
abaje 8556
aragira 8556
koko, 8555
ibyari 8554
16. 8551
oti 8550
yombi, 8548
tuzaba 8543
amakuru, 8542
kurw@@ 8542
Imwe 8541
n'abany@@ 8541
zic@@ 8541
midugudu 8539
a?” 8537
isukari 8531
yica 8530
cyanjye 8529
igitambo 8525
imo, 8524
au 8523
y’urupfu 8523
gikuru 8521
ry'Imana 8521
twagiye 8519
z’igihugu 8519
ijuru. 8518
6,@@ 8517
akorewe 8517
amen@@ 8517
Yerusalemu 8516
Mer@@ 8514
bitero 8514
iravuga 8514
ivamo 8514
Peace 8512
fasha 8511
mpano 8511
ubushyuhe 8511
biteza 8510
zatumye 8507
aray@@ 8506
osora 8506
yasoje 8506
bemeje 8504
muryango, 8504
ryakozwe 8504
atu@@ 8502
Inz@@ 8501
Nyar@@ 8501
mw’@@ 8501
.000@@ 8500
OS@@ 8500
4-@@ 8499
bakwiriye 8499
ugaragaza 8499
yakatiwe 8499
icy’@@ 8495
ukuboko 8495
bagerageje 8494
''@@ 8493
yamb@@ 8493
Ikoranabuhanga 8492
giherereye 8492
ARA 8490
izere 8488
w’abantu 8482
gutinya 8481
ijwe, 8478
Apotre 8477
cyatsinzwe 8476
ufashije 8476
z‟@@ 8474
wavuye 8473
yong@@ 8473
inzirakarengane 8472
Louis 8469
bakin@@ 8468
nto 8468
bisobanuye 8467
RDB 8465
n’urukiko 8462
bite 8461
a…@@ 8457
bw’abantu 8457
Q@@ 8456
eranya 8456
ukwiriye 8455
Theogene 8453
ifuzaga 8452
barasabwa 8451
ukabije 8448
yitegura 8446
guhagarara 8445
agaciro, 8444
undo 8442
Chris 8439
agarara 8438
ufatwa 8435
Click 8433
yazanye 8433
ntan@@ 8432
inzoka 8431
ababo 8430
kwihangira 8430
ezerewe 8429
Er@@ 8428
utazi 8426
Sam@@ 8424
ababar@@ 8424
imf@@ 8424
Yannick 8420
itaga 8420
gihembo 8419
yaherukaga 8419
manota 8417
yashoboraga 8417
Ngabo 8416
ure, 8414
pf@@ 8413
w’icyumweru 8413
muburyo 8411
wiriye 8407
Ally 8404
bijya 8403
Nigeria, 8398
abahoze 8398
7:@@ 8397
Sam 8396
akora. 8396
42 8395
kanama 8393
n’Amahanga 8393
igishije 8391
ntoki 8390
yats@@ 8389
cy'imyaka 8387
run@@ 8385
umva, 8383
bitegura 8379
kwimakaza 8379
yafashije 8379
iko, 8378
oboz@@ 8378
iga, 8377
2005 8370
babikora 8370
onze 8369
Ikinyarwanda 8368
19. 8366
Ikintu 8366
e.com 8364
&@@ 8362
uhora 8362
Abdul 8360
abonetse 8360
akurikije 8358
ubuzim@@ 8358
moya 8357
0.@@ 8355
nyafurika 8355
tugeze 8355
wahuje 8354
yahakanye 8352
hakorwa 8351
Foundation 8350
iyongeraho 8349
cyose. 8348
kwibasira 8346
Isonga 8345
ga 8345
izaho 8345
ngeso 8345
umuy@@ 8344
batishoboye 8343
ikur@@ 8343
yitwaye 8343
Ikig@@ 8341
kigera 8340
ndag@@ 8339
yabas@@ 8339
yababwiye 8337
MUR@@ 8333
yamut@@ 8332
Ndagijimana 8331
abantu@@ 8329
incuro 8326
afungwa 8325
arizo 8325
riba 8325
aharanira 8323
imo. 8323
Pap@@ 8321
Muy@@ 8320
gusana 8320
usi 8320
yabyaye 8318
In 8317
umwijima 8317
obora. 8316
Ifoto 8314
muryango. 8313
n’impamvu 8312
Yah@@ 8309
ibihuha 8308
yayo, 8304
ali, 8303
ikw@@ 8302
uko, 8302
muc@@ 8301
itum@@ 8300
ukekwaho 8300
Minisit@@ 8299
atana 8299
bikiri 8299
NI 8298
oye. 8297
n'ubu 8296
abanutse 8293
abakene 8291
iterambere, 8290
izeho 8288
bigisha 8286
abanuka 8284
imibanire 8283
abajyanama 8282
a:@@ 8280
ohoza 8280
akora, 8279
iswe 8278
21, 8277
inzwe. 8277
acika 8273
emezwa 8273
kimwe, 8272
umeny@@ 8272
inkongi 8271
kubagezaho 8271
Ban@@ 8269
iher@@ 8269
ahaguruka 8268
Tanzania. 8267
unze, 8267
ingirakamaro 8265
bakoranye 8264
binj@@ 8264
aragarira 8263
umucuruzi 8262
bikorerwa 8261
cyahoze 8261
yacyo 8260
umuf@@ 8259
babaz@@ 8256
Rulindo 8255
hatangiye 8255
Gisirikare 8254
murima 8251
ashyigikiye 8250
wawe, 8249
"Ni 8248
bagire 8246
frw 8245
icyumba 8244
Mis@@ 8240
Didier 8238
ibyiringiro 8238
umuntu, 8238
Nk’@@ 8233
gukurikizwa 8233
Nkur@@ 8231
baririmba 8230
ess 8229
ambuka 8227
ongo, 8224
Angola 8222
kwigaragaza 8221
ikina 8220
ajy@@ 8218
oboye 8216
oire 8216
NK@@ 8215
Alpha 8209
ange, 8208
iyoboye 8208
III 8206
Ubus@@ 8205
Tuz@@ 8204
aranye 8204
ivuye 8201
2-@@ 8200
afurika 8198
nk’uw@@ 8198
b'u 8196
byishimo 8195
ntibaz@@ 8195
“H@@ 8193
Ol@@ 8191
Kane, 8190
ivangura 8190
uburere 8190
bakomeze 8187
Omar 8185
ahindutse 8185
maguru 8185
uduce 8183
ekwaho 8181
Igitabo 8180
Con@@ 8179
itegereje 8179
yagombye 8179
“Nta 8179
], 8177
gusezerana 8174
nyayo 8174
yanditswe 8174
Liliane 8173
bituruka 8173
ibitangazamakuru 8173
agahigo 8171
kuyig@@ 8171
ukomeza 8171
ment@@ 8168
zisanzwe 8167
Itangazamakuru 8164
Eddy 8163
9:@@ 8161
En@@ 8160
arenze 8159
agije 8154
bonyine 8153
Sch@@ 8151
ahamagara 8151
Y'@@ 8150
gusiga 8149
abami 8148
muhanda, 8148
azakomeza 8147
ial 8147
y'Imana 8147
ziriya 8146
enewe. 8143
agarar@@ 8141
abakur@@ 8139
izab@@ 8139
muzi 8139
Christine 8137
icwa 8136
guhind@@ 8135
iste 8135
Kigal@@ 8134
Kabarebe 8133
ndab@@ 8133
afashije 8132
babiri, 8132
banyamakuru 8132
utsi 8131
amashuri, 8128
guhitana 8128
iduk@@ 8127
bayobora 8126
imfubyi 8126
agasanga 8123
kubon@@ 8123
kubangamira 8121
amande 8120
w’Ububanyi 8119
ruhande, 8117
Benjamin 8114
ushye 8113
indyo 8112
Ubukungu 8109
akund@@ 8109
ibiza 8109
Mub@@ 8106
ikibazo. 8105
yaragiye 8104
i), 8103
IJ@@ 8100
kwiyandikisha 8100
macye 8100
bagana 8098
Nawe 8093
yenda 8089
irwaho 8088
2017@@ 8087
A), 8085
abyo 8085
ikubitiro 8084
imira 8084
vuba, 8084
bashyigikiye 8081
erekejwe 8081
yahagaritse 8079
yemo. 8077
agakora 8075
“D@@ 8073
COVID-19. 8071
bagasanga 8071
itangaje 8070
u-@@ 8070
eruk@@ 8069
Andi 8067
kucy@@ 8066
n’amat@@ 8066
ubarizwa 8066
Emmanuel, 8064
bafungiye 8062
udus@@ 8061
Current 8059
Igitaramo 8059
Yunze 8059
abarw@@ 8059
Sudan 8056
had@@ 8055
shampiyona. 8055
wakora 8053
byemewe 8052
oborwa 8052
aragara 8051
babw@@ 8050
b’ 8049
ï@@ 8049
angiye. 8048
ewe. 8048
ibinyamakuru 8048
arya 8046
ebya 8046
kwezi, 8046
n'icyo 8046
ondo, 8045
nganda 8043
kubuza 8041
n’int@@ 8041
wayoboraga 8041
Boyz 8040
is, 8040
ndavuga 8039
bo. 8037
ryatangiye 8037
mwiza, 8036
wamo. 8036
agih@@ 8035
urish@@ 8034
Cameroun 8033
ans 8033
itana 8033
umurwa 8030
Umushumba 8028
afi 8028
aracy@@ 8028
ijuru, 8028
2013. 8027
imirambo 8027
abimukira 8026
Damascene 8025
ingo, 8025
asoban@@ 8024
iho. 8023
BW@@ 8022
ashyiramo 8021
twasanze 8021
izamo 8020
RA@@ 8019
angirira 8019
biva 8019
ene, 8019
magendu 8019
wanjye, 8018
', 8016
are, 8016
we! 8016
Nyamata 8015
azig@@ 8015
muny@@ 8015
n’icyaha 8015
ubutabazi 8015
Premier 8014
gufat@@ 8012
mishya 8011
kwim@@ 8010
Aka 8009
ereranywa 8009
Wasoma 8007
cyabo. 8005
Vianney 8004
’s 8003
48 8002
bashatse 8000
yemewe 8000
Melody 7999
min@@ 7998
nziza, 7998
Daily 7997
mvuga 7997
iciro 7996
wabonye 7995
iduka 7994
u; 7994
ikirenge 7993
e?” 7991
published. 7990
ure. 7990
Bwiza.com 7987
akurikira 7984
ubugome 7984
amafranga 7982
August 7976
as, 7976
bakamenya 7976
itag@@ 7976
n’icyorezo 7976
bwat@@ 7975
23, 7972
buriri 7972
ivugira 7972
fields 7971
Laurent 7970
mab@@ 7968
marked 7968
burezi 7965
mujye 7965
ER 7964
Hussein 7964
KANDI 7964
empty 7964
orosh@@ 7963
Colonel 7962
agarag@@ 7962
igif@@ 7962
ukubera 7962
Queen 7959
hasi, 7958
ubucuti 7957
Required 7956
ntik@@ 7956
Rusizi, 7954
iyo, 7953
Jenerali 7952
July 7952
cyiswe 7952
anzi. 7950
abaregwa 7949
ati"@@ 7948
yabikoze 7947
kubakira 7946
Muvunyi 7945
umumaro 7945
yamenyesheje 7944
cyaje 7943
y’umuryango 7943
bigarag@@ 7942
Igihugu, 7941
Far@@ 7940
icyi 7940
ubone 7940
Ibitaro 7939
igarag@@ 7939
kubis@@ 7938
NSHYA 7937
ifitanye 7937
inze. 7936
irika 7936
FARDC 7934
amashyamba 7934
z’icyumweru 7934
byombi. 7931
MIN@@ 7928
weho. 7926
ruswa, 7924
NYIR@@ 7923
z’iki 7922
Hip 7920
ye@r 7919
75 7918
agara 7915
(L@@ 7914
whatsapp 7914
wayoboye 7913
bibera 7910
izihiza 7906
orewe 7906
America 7904
umuryango. 7898
umuzamu 7897
atsinzwe 7895
UL@@ 7893
facebook 7893
KAR@@ 7889
8:@@ 7888
bwabo, 7887
Ass@@ 7879
ayi. 7879
kumubwira 7879
app@@ 7878
asigara 7876
hakwiye 7876
Convention 7874
bw’Akarere 7874
atu 7873
Amafoto: 7871
undira 7870
kurandura 7869
barwayi 7866
barasaba 7865
cyera 7865
mugani 7865
bang@@ 7863
igipimo 7863
yubatse 7863
IGP 7862
o), 7862
abanyarwanda. 7859
politiki, 7859
ujijwe 7859
Nzamwita 7858
muj@@ 7854
22, 7852
nama, 7852
bikarangira 7850
bunyuranyije 7850
Le 7849
ibiny@@ 7848
ahagaritse 7847
amayeri 7847
barwanyi 7847
bateguye 7846
abasaza 7845
bal@@ 7845
bwihariye 7845
umwete 7845
mahame 7842
Rur@@ 7840
ababy@@ 7839
abacamanza 7839
dr@@ 7837
wegukanye 7835
Yag@@ 7829
imyidagaduro 7825
ugu, 7825
Repubulika, 7824
acu 7824
amashyirahamwe 7824
umirwa 7824
M.@@ 7823
w’ibihugu 7823
ogera 7821
bagahabwa 7820
yasub@@ 7820
eto 7819
akuramo 7818
numero 7818
Rukundo 7817
amabere 7817
z’uyu 7817
akoz@@ 7816
bapolisi 7816
onk@@ 7815
ubash@@ 7815
yateranye 7815
7,@@ 7811
ariwo 7811
mihango 7811
rikuru 7811
bikozwe 7810
ungur@@ 7808
inkingi 7802
iyeho. 7801
akubwira 7799
arama, 7797
numwe 7797
yahitanye 7793
bakunzwe 7792
Ac@@ 7791
88@@ 7788
n'igihe 7785
ubag@@ 7785
uzura 7785
yaguze 7785
igenamigambi 7784
kipe. 7783
Kumenya 7780
aramo 7780
n'undi 7780
umweru 7780
amakarita 7779
w�@@ 7779
nziza. 7777
kumvira 7776
UND@@ 7773
er) 7772
kuryamana 7772
ombo 7771
sha 7770
Umunara 7768
iyeho, 7768
tion 7768
ida 7767
kubika 7767
O, 7766
Simon 7766
gishanga 7765
tugize 7765
abamotari 7764
ibiyobyabwenge, 7764
abagiye 7763
yabyo 7763
byaz@@ 7762
imitekerereze 7761
3-@@ 7759
baran@@ 7759
gatera 7759
non@@ 7758
yabona 7756
Bugesera, 7754
Kigeli 7752
utekereza 7751
waho, 7746
RP@@ 7745
agahabwa 7745
bihembo 7742
y’ibyo 7742
uheruka 7740
imideli 7736
ubukungu, 7736
IMB@@ 7735
Pal@@ 7734
amuhaye 7731
gushima 7731
al-@@ 7728
akaye 7727
(A@@ 7726
65 7724
asi, 7724
Ruhengeri 7723
zigize 7721
ér@@ 7720
55 7718
eba@@ 7716
korohereza 7716
onje 7716
teka 7716
hatandukanye 7709
yamur@@ 7707
ukurikir@@ 7706
acitse 7701
isigaye 7700
huriro 7699
hagendewe 7698
ubwayo 7698
Nina 7697
akundana 7695
abakiliya 7693
umunezero 7693
Gacaca 7691
Gatabazi 7691
mufite 7690
shampiyona, 7689
ono 7688
800 7687
agur@@ 7686
ong 7686
inkoko 7685
2° 7684
kato 7683
urusaku 7683
Yabwiye 7682
umvisha 7682
`@@ 7681
Gasogi 7680
guhunga 7675
utagira 7675
/12/201@@ 7670
zose, 7670
Kigali: 7669
Umuco 7669
akangurira 7669
anzwe. 7666
39@@ 7663
bwiza. 7661
ibi, 7661
ryerekeye 7661
misozi 7660
y'i 7660
ubusa, 7659
ipeti 7656
igihe. 7655
matorero 7655
n’umutoza 7655
zihimbaza 7655
Ugand@@ 7653
ingi 7653
ohok@@ 7651
oroheye 7651
uwemo 7651
acu@@ 7650
ila 7650
n’ibikoresho 7650
Fabrice 7649
iherezo 7648
Mbese, 7647
RSSB 7647
Zaburi 7647
abatwara 7646
studio 7646
azamuka 7644
Musoni 7643
ato 7641
w’umuntu 7641
utoza 7639
ikora. 7638
batwara 7637
St 7636
Yesu. 7636
Nyarugenge, 7634
biribwa 7634
1° 7633
bitabira 7633
yamuhaye 7632
01@@ 7631
arinda 7627
nyobozi 7627
Mod@@ 7622
Kicukiro, 7620
ifu 7618
Et@@ 7617
irem@@ 7617
bwir@@ 7615
!" 7613
embwe 7613
(T@@ 7612
Uwamahoro 7611
ayi, 7611
ahem@@ 7610
Pol@@ 7609
hasi. 7609
inama, 7609
o:@@ 7605
uwe@@ 7605
ES 7604
ihari 7604
byih@@ 7603
watanze 7603
weho, 7603
nyuma, 7601
bafash@@ 7600
eby@@ 7600
yatsindiye 7600
nzoga 7596
41 7595
arangwa 7594
umugaragu 7594
Gen@@ 7591
ies 7591
mwar@@ 7590
Yoweri 7589
bap@@ 7588
riti 7586
yavug@@ 7585
kanwa 7583
kubam@@ 7583
mihigo 7583
onde 7583
Fin@@ 7582
muhungu 7580
att@@ 7578
ayandi 7577
ikag@@ 7576
Video 7575
ihungabana 7573
ikiny@@ 7572
urujijo 7572
Rwam@@ 7571
(3) 7570
imigisha 7570
M. 7569
2% 7568
Uhagarariye 7565
ampa 7563
inshi 7563
n’izindi. 7563
mahanga, 7562
nk’ibyo 7561
wahise 7559
ibwe 7558
yamenye 7557
e' 7556
ngendo 7556
bamubwira 7555
inzir@@ 7555
w’Ingabo 7553
cy' 7551
kugirwa 7551
amutse 7549
ibiri, 7549
Butaliyani 7548
w'Imana 7548
bemeye 7547
umva. 7547
n’urukundo 7546
ser@@ 7545
(5) 7540
aramubwira 7539
icyitegererezo 7538
gukurikira 7537
Black 7535
sinz@@ 7534
bacuruzi 7530
bitwara 7529
akeka 7528
fashe 7526
umugani 7526
bafite, 7524
ho. 7524
iwabo. 7524
amer@@ 7523
anjye. 7522
abyumva 7521
ishira 7521
madini 7520
a’. 7519
igiterane 7518
Ubutegetsi 7517
Ati@@ 7516
film 7515
ukuba 7515
bakund@@ 7514
Imbuto 7513
Umuhoza 7513
oha 7512
kiruhuko 7510
kunyura 7510
inama. 7508
yine 7508
abatangabuhamya 7507
Z 7506
rigiye 7505
ubatswe 7505
y’im@@ 7505
SACCO 7504
Oya 7503
kigira 7503
ufung@@ 7503
(3@@ 7502
Augustin 7501
aa 7500
kuvamo 7500
angamo 7499
kwiz@@ 7499
nyampinga 7499
ntarengwa 7498
Ubug@@ 7496
n’ibyaha 7496
sport 7496
gikomeje 7494
irwanya 7494
izwaga 7493
urugomo 7493
amahanga. 7492
ise, 7491
kurushaho. 7488
asura 7486
bikekwa 7486
Urubuga 7485
ikiye 7485
IRO 7484
Twahirwa 7482
’’@@ 7482
ech@@ 7481
gukaraba 7481
Coronavirus, 7477
bw’akarere 7477
él@@ 7476
afatiwe 7475
bahaye 7475
by’u 7475
zahabu 7474
NKURU 7473
(MIN@@ 7471
RURA 7471
Fab@@ 7470
Mugenzi 7470
y’umukuru 7470
unguk@@ 7469
ubutasi 7468
Ikir@@ 7467
[Ifoto 7467
guhugura 7466
Bikira 7464
Abanyamuryango 7462
Sitasiyo 7459
IBY@@ 7458
bibaho 7458
Usengimana 7456
mitungo 7456
mukino, 7454
Mourinho 7453
bigaragazwa 7451
igishushanyo 7451
kdi 7449
zikunzwe 7449
Nelson 7448
narwo 7448
yafunguye 7448
rugomba 7447
Abasirikare 7445
ifite. 7445
mahanga. 7444
n’abafana 7444
Serge 7442
ema, 7441
(.) 7439
Cr@@ 7438
kurasa 7438
insanganyamatsiko 7437
Gak@@ 7436
mpita 7436
z'umutekano 7436
bere 7434
Chantal 7433
Tub@@ 7430
gutabwa 7430
onda 7430
bo@@ 7429
ous@@ 7428
Yongeraho 7426
us, 7426
ishima 7424
n'igice 7424
Franc@@ 7423
agasaba 7423
ishikariza 7423
akoresh@@ 7422
byarag@@ 7422
UMW@@ 7420
Krist@@ 7419
IP@@ 7418
bukene 7417
icyangombwa 7417
n’umuhanzi 7415
tujye 7415
Pet@@ 7414
IMP@@ 7413
abagore, 7412
iboneka 7412
inyam@@ 7411
kigega 7411
yazo 7411
abwa. 7407
akurikiza 7406
baca 7406
myiza. 7406
gutegeka 7405
Kimenyi 7404
Barack 7402
by’ukuri, 7402
mirwano 7402
ntangira 7402
wandikira 7401
Cor@@ 7400
asubiye 7400
ule 7400
wira 7399
rigamije 7398
akurikirwa 7396
mashyaka 7396
n’Umuryango 7396
usigaye 7396
Ministries 7395
uguk@@ 7395
mwak@@ 7391
ntekereza 7391
ez 7389
(1 7386
he? 7386
inzi, 7386
itek@@ 7386
bayoboye 7385
ereye@@ 7384
ambaza 7383
imisozi 7383
n'ibibazo 7383
INY@@ 7382
kutw@@ 7381
rizaba 7380
ashyirwaho 7377
ukoze 7376
yandik@@ 7375
nkumva 7374
guhurira 7373
muhanzikazi 7373
anja 7372
ahagarika 7371
ibuts@@ 7371
ifite, 7371
itwe 7371
Guk@@ 7370
gisirikare, 7369
mpapuro 7369
El 7368
con@@ 7368
mutwe. 7367
250 7366
April 7364
banyamuryango 7364
abajura 7363
agaritse 7363
arebe 7363
n'andi 7363
rikorerwa 7361
w'Abibumbye 7361
1990 7360
azab@@ 7360
ita, 7360
Evode 7359
Rutahizamu 7359
kumeny@@ 7359
2015@@ 7358
2016@@ 7358
Felix 7357
bateganya 7357
oresh@@ 7356
wa.@@ 7356
byinsh@@ 7354
kanda 7353
bats@@ 7352
cy’amezi 7351
43 7350
Atari 7350
Uhuru 7350
n’amazi 7350
yabajijwe 7349
Nyanza, 7348
yahishuye 7348
bakurikiranyweho 7346
Mico 7343
ushak@@ 7340
Mukunzi 7339
ntibig@@ 7335
yacu. 7333
bifat@@ 7332
kubonana 7332
ubayeho 7330
zizaba 7330
oze, 7329
aragarije 7328
reba 7328
On@@ 7326
inwa 7325
Mahia 7324
bibumbiye 7320
n’amakipe 7320
Ntaw@@ 7317
Somalia 7317
ayire 7317
guteg@@ 7317
ungir@@ 7315
ahira 7314
babura 7314
(5@@ 7310
byawe 7308
kwari 7308
zibishinzwe 7308
mutwe, 7306
erekanye 7305
n’ibit@@ 7305
ikuzo 7304
wi. 7304
al. 7303
buhagije 7303
ahazaza 7302
share 7302
ingirwa 7301
Buyapani 7297
Pas@@ 7296
igitangaza 7294
n’abay@@ 7294
bwah@@ 7293
Twitter, 7291
Karegeya 7290
y’isi 7289
bakeka 7286
urije 7286
anyij@@ 7283
[/caption] 7282
cyak@@ 7282
ishyuye 7282
byitezwe 7281
n’ibir@@ 7281
one, 7281
ce 7280
imbuza 7280
UBW@@ 7277
abagira 7276
[caption 7275
n’Abanyarwanda 7275
y'iminsi 7275
land 7274
izatangira 7272
andukana 7270
aho@@ 7268
imirenge 7267
emuk@@ 7266
onj@@ 7266
3% 7265
abazize 7265
n'abak@@ 7265
umugi 7265
id="attachment_@@ 7264
indo 7261
bajyanwa 7258
ewe, 7258
indabo 7257
kilometero 7257
Gukora 7256
Uturere 7256
kuyih@@ 7255
Ubwanditsi 7254
ikinyoma 7253
mpuzabitsina. 7251
pet@@ 7251
imenya 7250
Fl@@ 7249
ibumoso 7249
yategetse 7248
izanya 7247
cyateguwe 7244
b’iyi 7243
Des@@ 7242
bagifite 7242
Senegal 7241
haboneka 7241
ubucuruzi, 7241
abamw@@ 7240
Birashoboka 7239
cy'igihugu 7239
emere 7238
iyitwa 7238
Emery 7237
bara 7237
yijeje 7237
September 7233
acyari 7233
baregwa 7232
cr@@ 7232
120 7231
w’umurenge 7230
RRA 7229
abwaga 7226
enyesh@@ 7226
ashimishije 7223
ihan@@ 7223
obora, 7223
aduk@@ 7222
ibutse 7222
arug@@ 7221
gihamya 7221
obera 7221
urum@@ 7221
ibirenge 7219
ibitsina 7219
Amas@@ 7218
uvuze 7218
babonaga 7217
andikira 7216
bifatwa 7215
nk’ibi 7215
atsindwa 7213
Ibrahim 7212
comment 7212
ibirebana 7212
in. 7211
Mashami 7210
kopi 7210
odesh@@ 7209
iyongereye 7208
ony@@ 7207
Evariste 7205
Interahamwe 7205
gr@@ 7205
adi 7204
b'ibihugu 7204
bugiye 7203
abaturag@@ 7202
iteza 7202
twagombye 7202
unzi, 7201
Bose 7200
UY@@ 7200
uduk@@ 7199
twakoze 7197
kurema 7196
bagakomeza 7194
ogo, 7194
wishwe 7194
Mani 7193
yatangira 7193
babas@@ 7192
ashishikariza 7191
ibyabo 7191
acuruza 7189
).@@ 7188
n'imwe 7188
ow 7188
umurage 7188
umwana, 7188
embo 7187
rwah@@ 7187
OB@@ 7186
abanduye 7186
mik@@ 7186
bitse 7185
imbaza 7181
awo 7180
miyoborere 7180
wamenya 7180
amaherezo 7179
basezer@@ 7179
William 7178
asezer@@ 7178
nifuza 7177
yane 7177
imus@@ 7176
½ 7176
isab@@ 7173
kwemezwa 7173
byemezwa 7171
n’umuco 7170
bakuze 7169
Tugomba 7168
ORA 7167
Pa@@ 7167
enye@@ 7167
KAGAME 7166
kure. 7166
ubwato 7166
OMS 7164
Clement 7163
gutangazwa 7163
imbuye 7163
ruswa. 7162
n’abanyarwanda 7160
mw'@@ 7159
hagaragara 7156
2021, 7155
uriro 7155
8,@@ 7153
eke, 7153
y’abagore 7152
enze, 7151
Victoire 7148
enze. 7147
ikubiyemo 7147
uri, 7147
itur@@ 7144
kariya 7142
kubw@@ 7142
IPRC 7141
warangiye 7140
Muryango 7138
n'uw@@ 7138
Gish@@ 7137
ajyaga 7137
/01/17 7136
kwibutsa 7136
yarangiye 7136
hamwe. 7135
Sek@@ 7134
butari 7134
(K@@ 7131
cy'indege 7130
abic@@ 7127
Iran 7126
byatanzwe 7125
ment 7125
amubaza 7124
akaje 7120
sa@@ 7119
y'iki 7119
uzag@@ 7118
w’amashuri 7118
bafung@@ 7115
46 7112
maraso 7112
nyarwanda. 7111
FC@@ 7110
Neymar 7109
bwab@@ 7109
gushyiramo 7109
inyag@@ 7109
agam@@ 7108
bwihuse 7107
kera, 7106
n’iy’@@ 7106
akenera 7103
kugir@@ 7103
endo 7099
ihagaze 7099
kwihanganira 7099
UEFA 7097
ikiruhuko 7097
kubw’@@ 7096
yagera 7096
5-@@ 7095
amamaza 7095
Umujyanama 7094
Yas@@ 7094
Ang@@ 7093
bitemewe 7093
mal@@ 7093
gatatu. 7092
Mwiseneza 7091
enyi 7091
ngo: 7090
batinya 7089
barokotse 7088
isambu 7088
byabo, 7087
twavuze 7087
EC@@ 7086
akany@@ 7086
izwa, 7085
yeguye 7084
indag@@ 7083
esenguzi 7082
ibagiwe 7082
abatar@@ 7080
Abakuru 7077
ibid@@ 7077
ONU 7076
umuhinzi 7076
zishingiye 7076
insengero 7074
k, 7074
oreza 7073
ANZ@@ 7072
abatera 7072
zose. 7071
mbogamizi 7070
anjye@@ 7069
Buk@@ 7068
Urugaga 7068
agash@@ 7068
ande, 7068
OG@@ 7065
rwatangiye 7065
enyesheje 7064
uharanira 7064
Imirimo 7063
ngaho 7062
abahaye 7060
ikawa 7059
atagira 7057
Uwari 7056
ateguye 7055
Dennis 7054
wageze 7054
arama 7052
aratangaza 7052
w’ikigo 7051
bikubiye 7050
agirwa 7048
yariye 7048
zatangiye 7048
angirwa 7047
2011. 7046
eur@@ 7046
kumuk@@ 7046
urutoki 7046
Uwacu 7044
bacye 7043
Claver 7042
bizafasha 7042
mwiza. 7042
Village 7041
abi 7041
“Y@@ 7040
azongera 7038
ntibag@@ 7037
oki 7037
ti 7037
Ra@@ 7035
abiye 7035
wasoma 7035
Mukand@@ 7034
angiye, 7034
Jackson 7031
RC@@ 7031
riherereye 7031
Korea 7030
kok@@ 7026
atangiriye 7025
biciwe 7025
kibi 7025
acu, 7024
yagenewe 7024
per@@ 7023
y’umunsi 7023
urwanya 7022
y’imp@@ 7022
kubeshya 7021
apfa. 7020
angur@@ 7019
imikoreshereze 7019
enn@@ 7018
n’imbaraga 7017
kong@@ 7016
angaje 7015
arir@@ 7015
bwemewe 7015
kuryama 7015
Ibir@@ 7014
unganya 7013
atan@@ 7011
ikoresheje 7011
yashy@@ 7010
bungana 7009
ugu. 7009
rishyira 7006
rw’u 7006
yatw@@ 7006
Per@@ 7005
buv@@ 7005
on: 7005
endeye 7004
intangarugero 7004
twaganiriye 7004
bwakorewe 7003
amy@@ 7001
ituze 7001
2-0 7000
waye. 7000
ambuye 6999
mbon@@ 6999
yasabwe 6999
bazar@@ 6998
ikiza 6998
ahamwe 6996
barenze 6996
okora 6996
y’Isi 6996
Ok@@ 6995
anganira 6991
Al-@@ 6990
ntambwe 6986
umuriza 6985
n'ikibazo 6984
bahinzi 6981
bagahita 6979
umuryango, 6979
imisha 6978
angirika 6976
Harimo 6975
ereyeho 6974
abap@@ 6972
UJ@@ 6970
kuvuka 6970
Intwari 6969
iyemeza 6969
amashanyarazi, 6967
izwamo 6967
azwe 6966
kurekura 6966
mon@@ 6966
azamutse 6964
bivuye 6964
utuma 6963
y’amavuko. 6963
ezeza 6962
zitangwa 6962
Gor@@ 6961
amagarira 6960
ashyizweho 6959
Sports@@ 6958
rwanda 6958
bwami 6956
i). 6956
Bos@@ 6954
MUS@@ 6953
ingiro 6952
kugend@@ 6951
n’ubuk@@ 6951
byanditswe 6950
hab@@ 6950
abiy@@ 6949
araza 6949
fil@@ 6949
bavandimwe 6947
oka. 6947
oso 6947
y'amafaranga 6947
“Ubu 6947
abarundi 6946
numvise 6946
Rimwe 6944
w’Ikigo 6944
F, 6941
manywa 6940
/11/201@@ 6939
aboneraho 6939
nk'aho 6939
): 6937
ubasha 6937
Imy@@ 6934
azi. 6934
itegurwa 6934
bihano 6933
Rom@@ 6932
gutega 6932
ryab@@ 6932
ukunzwe 6931
umunyamuryango 6931
z'ibanze 6931
52 6930
uranye, 6930
gucukura 6929
yiz@@ 6929
ukab@@ 6928
UKA 6927
y’ingabo 6926
itangazamakuru, 6922
n’abasirikare 6922
n’ubworozi 6922
ambye 6920
a… 6919
IJE 6918
wagombaga 6918
wiye 6918
Paul@@ 6916
Urubanza 6916
osa 6916
ul 6915
ibasiye 6913
Close 6911
Kaz@@ 6911
bateraniye 6911
Ministeri 6910
une 6910
00. 6909
angany@@ 6909
cy’amategeko 6909
indashyikirwa 6907
materaniro 6907
Desire 6904
imur@@ 6904
ishyurira 6904
isabira 6903
Kacyiru 6902
rwose, 6902
z’ukwezi 6902
bahatanira 6901
ibazwa 6901
umvik@@ 6900
urugaga 6898
bica 6897
ick 6896
kane, 6896
Umubare 6895
fash@@ 6895
NZ@@ 6894
a,” 6894
yagiraga 6893
RDF 6892
Ubuk@@ 6892
gukiza 6892
yicaye 6890
54 6889
Turere 6889
kaba 6888
agararira 6886
atwa 6885
Zuma 6882
bikoresha 6882
byitwa 6882
NGO 6881
ich@@ 6881
umwiherero 6881
Nduhungirehe 6879
Don@@ 6878
bahagaze 6878
bishim@@ 6878
Bank 6877
icyatumye 6876
bahari 6875
amazi. 6874
biravugwa 6874
RPA 6873
cyose, 6873
]. 6872
muba 6871
asoma 6869
Burund@@ 6868
umbura 6868
asubizwa 6867
ryah@@ 6866
n’inama 6865
ubahir@@ 6865
bwite. 6863
ikibazo, 6862
ristu 6860
asubir@@ 6858
rugiye 6858
havugwa 6855
kukw@@ 6855
agarik@@ 6854
ahaz@@ 6854
mutagatifu 6854
mva 6853
ezi. 6852
Uburusiya 6851
Gisozi 6849
Rukuru 6849
kwishyurwa 6849
kwigana 6848
buj@@ 6847
ubutabera, 6846
snippet=”google-pub”] 6843
batur@@ 6842
Dominique 6840
mpaka 6839
ohot@@ 6839
oke 6839
yandika 6839
Rutayisire 6836
kimenyetso 6836
uzugura 6835
inyuka 6834
Alice 6833
wanyu 6832
gukurura 6830
n'abahanzi 6830
abashoferi 6829
iyicarubozo 6828
ubucukuzi 6828
washinze 6827
Patient 6825
agakomeza 6825
akuraho 6825
em 6825
ikibi 6825
RPF 6823
kurira 6823
Agatsiko 6819
n’iz’@@ 6819
Charly 6818
IRI 6818
2010. 6816
ivuka 6816
Maj 6814
z’ubuzima 6814
ibam@@ 6813
ivuga, 6813
gikwiye 6812
Christophe 6811
onz@@ 6811
Callixte 6810
uciye 6810
Kagam@@ 6809
Umurimo 6808
Seb@@ 6806
eneye. 6806
6-@@ 6805
abire 6805
mbonera 6803
Gatera 6802
ahuje 6801
murugo 6801
rukuru 6801
so 6801
Abad@@ 6800
ndabona 6798
Tug@@ 6797
Victory 6797
abajije 6794
mbuto 6792
ubakiye 6792
yung@@ 6791
Mike 6790
0788@@ 6789
uko. 6786
ngororamubiri 6785
osi 6784
zikomeje 6784
Frw, 6783
Burayi, 6781
ikoreye 6780
mucy@@ 6780
buvuzi 6779
E: 6778
Mugesera 6777
URUKIKO 6777
n’ubwiyunge 6777
a.com 6775
n’inz@@ 6773
yohereje 6773
ushijeho 6772
MUG@@ 6770
kizwi 6770
muba@@ 6770
rwanyu 6769
ubit@@ 6769
ushimisha 6769
Josiane 6767
itangazamakuru. 6767
egwa 6766
pe@@ 6766
ubwisanzure 6765
y'igihe 6764
Afite 6763
yamubwiye 6763
Gatanu, 6762
Irushanwa 6762
October 6762
Umudugudu 6761
ley 6759
njyanama 6759
unt@@ 6759
gake 6758
tanu 6758
uranye. 6757
enyera 6756
leta, 6756
magare 6755
imyifatire 6753
oir@@ 6752
Biden 6751
undura 6750
AZA 6749
Bitewe 6749
about 6749
bitego 6749
2012. 6747
mugezi 6745
rusang@@ 6743
ibikom@@ 6742
uga. 6742
Ubush@@ 6741
iramo. 6739
bahamya 6738
AC 6736
anyo 6735
dusaba 6735
angiritse 6734
witabiriwe 6734
bije 6732
ntibat@@ 6731
utswe 6731
zikoreshwa 6729
burwayi 6728
n’umusore 6728
yaho, 6728
AYE 6727
byangombwa 6725
cyorezo. 6724
n’urubyiruko 6724
700 6723
hafashwe 6723
SP 6722
Yezu, 6722
mib@@ 6722
Imb@@ 6720
Wema 6719
ishyiraho 6719
omero 6719
078@@ 6717
…. 6717
mukunzi 6715
erura 6712
rubuga. 6711
arashaka 6707
kurushinga 6707
muganga. 6707
Guinea 6706
2018@@ 6705
Sav@@ 6705
ritangira 6705
acyo 6704
bakongera 6703
gushimisha 6703
utangira 6703
akiza 6702
n'ikinyamakuru 6702
igi, 6700
umugore, 6700
y’icyo 6700
Igikorwa 6699
tuv@@ 6698
engero 6697
urwaye 6697
Theoneste 6696
bahurira 6696
kuruhuka 6696
IKI 6694
B. 6693
amahitamo 6691
Igazeti 6690
mucyo 6690
wafashwe 6689
abakom@@ 6687
White 6686
n’indirimbo 6685
n’izo 6685
ruguru 6684
yabajije 6684
Por@@ 6683
ireng@@ 6681
ous 6681
Mukeshimana 6680
oka, 6679
omera 6679
Ndag@@ 6678
niwo 6678
biyobyabwenge 6677
sc@@ 6677
oreshejwe 6675
aya. 6674
akantu 6673
ht@@ 6673
n’ukuntu 6673
umuyoboro 6673
cy'uko 6671
myenda 6671
itabiriwe 6670
Kayitare 6669
abwiye 6667
bato, 6667
bwiza, 6667
eraho, 6667
umvaga 6667
utseho 6667
yu 6667
ibak@@ 6666
Côte 6664
uburakari 6664
46@@ 6663
Nyagatare, 6662
mico 6662
Roma 6661
erekeye 6661
umvikanye 6660
abaririmbyi 6659
amafi 6659
n’ayo 6659
akongera 6658
a!@@ 6657
emeje 6657
umuraperi 6657
byaram@@ 6655
byit@@ 6655
ingura 6655
nshobora 6652
aff@@ 6651
rad@@ 6651
ijemo 6649
ust@@ 6649
Rwatubyaye 6648
bariho 6648
byarangiye 6648
byongera 6647
gusezerera 6647
annye 6645
wigisha 6645
gahoro 6644
B, 6643
babak@@ 6643
b’ikipe 6643
yaganiraga 6643
Gatatu, 6642
ashying@@ 6642
ica. 6642
n'ahandi 6642
ICYUMWERU 6640
agakoko 6640
cyafashwe 6639
ujyanye 6639
ziv@@ 6639
Uwamariya 6638
Gabon 6637
Urwo 6637
ions 6637
icyamamare 6636
kuburana 6636
Y’@@ 6635
bl@@ 6635
ahazwi 6634
ibonera 6633
yaririmbye 6633
ERE 6632
agatsiko 6632
uburebure 6632
ntumwa 6630
cyahariwe 6628
kwiyubaka 6628
mashini 6628
bw’ibyo, 6627
ivugaho 6627
Claire 6626
Man 6625
akenewe 6624
utag@@ 6624
window) 6622
(Opens 6621
guhohotera 6621
bidakwiye 6620
abarirwa 6619
w’Afurika 6619
yifuzaga 6618
y’ubucuruzi 6618
n’Ikigo 6617
he@@ 6616
Football 6615
Algeria 6614
bwire 6613
munyamakuru 6613
utangiye 6613
ubwiherero 6610
bamaranye 6608
umuntu. 6607
utsinda 6607
ibanza 6605
gare 6604
rimwe. 6604
ubabar@@ 6603
Bakame 6602
yahinduye 6602
ahagarara 6601
anza. 6600
n’abagize 6600
ongereza. 6600
imug@@ 6599
n'ab@@ 6599
bivug@@ 6597
indaya 6596
ryat@@ 6596
yavaga 6596
Macron 6595
ezemo 6595
kugerwaho 6595
w’Ishami 6595
yanenze 6595
Madiba 6594
Mugiraneza 6594
y’ubutegetsi 6594
zabaye 6594
Internet 6593
n’ink@@ 6593
"] 6592
bakareba 6592
Ap@@ 6589
Umunyam@@ 6589
Umugaba 6588
byakw@@ 6588
z'amafaranga 6588
akisha 6587
bwatangaje 6587
omeza 6586
Abafite 6585
Ubucuruzi 6585
bafatanya 6585
Brown 6584
Washington 6584
batandukanye. 6584
nih@@ 6584
yambere 6583
ereranye 6582
Imbere 6580
bikabije 6579
nan@@ 6579
Safari 6578
ign@@ 6578
2) 6577
andukanye 6577
itunganya 6577
oth@@ 6577
able 6576
batoza 6576
byo. 6576
n’abavandimwe 6576
kibaz@@ 6575
ovu 6575
birag@@ 6572
bw’ibyo 6571
ump@@ 6571
Date: 6570
mby@@ 6570
akaj@@ 6569
Abatuye 6568
ahah@@ 6568
gihugu@@ 6568
guhaguruka 6567
uburaya 6567
Fil@@ 6566
all 6565
ezo, 6564
inzwe, 6564
Cal@@ 6563
EZA 6563
endaga 6563
rwawe 6563
wara. 6563
y’Ubutegetsi 6562
y’umuntu 6562
kuvugisha 6561
Kad@@ 6559
UN 6559
Ros@@ 6558
Global 6557
mukerarugendo 6557
COVID-19, 6556
Makuza 6556
Umunya-@@ 6554
‘ 6553
Biro 6552
(H@@ 6551
Bitaro 6551
bikorera 6551
Muganga 6550
bitwa 6548
muv@@ 6548
amavuko 6546
bugomba 6545
masengesho 6545
moko 6545
ati" 6544
pariki 6544
izakina 6543
zifata 6543
bayobowe 6542
ego, 6542
usabye 6541
Publish 6540
uno 6539
ab 6538
y’ibihumbi 6537
abaye. 6535
kure, 6535
nkor@@ 6535
umukecuru 6534
ikaza 6533
School 6532
nza 6531
Amah@@ 6530
umwambaro 6528
O. 6527
erereza 6527
kipe, 6527
EP@@ 6526
Yaje 6526
ushinjwa 6526
wihariye 6525
yi. 6525
March 6524
anzu 6524
guhakana 6523
abije 6522
ier@@ 6522
kumera 6522
2021. 6520
IZI 6520
Ant@@ 6519
Mum@@ 6519
Erega 6515
ibiri. 6515
To@@ 6514
agenewe 6513
26, 6512
ugereranije 6509
kugaba 6507
umutima, 6507
irimb@@ 6506
umba. 6506
yitaba 6506
Gir@@ 6505
bayir@@ 6505
ubw’@@ 6505
urubyiruko, 6505
...@@ 6503
baga 6502
Moses 6499
hashyizweho 6499
Kaboneka 6498
URU 6498
by'ukuri 6498
'. 6497
irag@@ 6496
J 6495
akandi 6495
batwaye 6495
Ibyanditswe 6494
andikiye 6494
Rubavu. 6493
aro, 6492
Od@@ 6491
Abac@@ 6490
bwas@@ 6490
n'abagore 6489
ubutegetsi, 6488
byiza, 6487
iyeyo 6486
Eugene 6485
ibone 6485
embye 6483
ikiguzi 6483
Free 6482
Zion 6482
ave 6482
fata 6481
izah@@ 6481
ishyirwaho 6480
uhabwa 6480
yishyura 6478
ch 6475
witabye 6474
abashakashatsi 6472
oli 6472
w’Umuryango 6472
Miliyari 6470
n’iby’@@ 6470
kund@@ 6469
ukurikije 6469
Gakwaya 6468
Kabgayi 6468
abamo 6468
ifashishije 6468
bihugu. 6467
ical 6466
wabonaga 6466
202@@ 6465
Amwe 6465
ukundi 6465
yageraga 6465
uhoraho 6464
abivuga 6463
giteg@@ 6463
kwand@@ 6463
imik@@ 6462
rimwe, 6462
Boko 6461
binyuranyije 6461
wawe. 6461
December 6459
imenye 6458
vi@@ 6458
Intambara 6457
abapfuye 6456
runaka. 6456
y'iyi 6456
kubyina 6455
yarabaye 6455
yemer@@ 6455
anah@@ 6454
atanzwe 6454
itaba 6454
nomero 6454
ingurane 6453
ogeye 6453
emererwa 6452
Gihugu 6451
buntu 6450
kubim@@ 6447
kirego 6445
Ntaganda 6444
PL@@ 6444
i?@@ 6444
ibuye 6444
Today/KT 6443
agiza 6442
Adamu 6440
yabitangaje. 6439
bikomeye, 6438
ian@@ 6438
y’Uburezi 6438
arambwira 6437
ikibanza 6437
hamenyekane 6436
n'Imana 6436
Social 6434
KUR@@ 6433
ibirometero 6433
ububi 6430
Please 6429
ST@@ 6429
Inyandiko 6428
Twag@@ 6428
w’umunsi 6428
bazat@@ 6427
Yehov@@ 6426
nawe. 6426
n’amabwiriza 6426
Abaf@@ 6425
Uh@@ 6425
mwari 6424
witabiriye 6424
GAT@@ 6423
kumenyesha 6423
ntaramakuru 6423
ijeho 6422
yafash@@ 6421
apa 6420
bigakorwa 6420
w’ishyaka 6420
act@@ 6419
arem@@ 6419
ubik@@ 6419
South 6418
am, 6418
tway@@ 6418
gutorwa 6416
imbye 6416
ryabaye 6416
ak 6415
ubereye 6414
kugena 6413
itsind@@ 6411
bashiki 6410
Ngir@@ 6408
atanira 6408
cy‟@@ 6408
ntashobora 6408
amiye 6407
49@@ 6406
Ruhango, 6406
acibwa 6406
bibon@@ 6406
kabuza 6406
yashim@@ 6406
abanyarwanda, 6404
ebwa 6404
ikiriza 6403
VIDEO 6401
babaza 6401
+@@ 6397
Gahongayire 6397
urwaga 6397
bafunzwe 6396
y’Epfo. 6395
Confederation 6393
ushyir@@ 6393
asimbura 6391
ekaga 6391
ys@@ 6390
“K@@ 6389
men@@ 6388
gutinda 6387
-“@@ 6386
unde 6386
Musa 6385
atabar@@ 6384
ibiyobyabwenge. 6384
wagira 6384
ix@@ 6383
72 6380
ARE 6380
bakora. 6380
KAB@@ 6379
gukiranuka 6379
yambara 6379
Islam 6378
anu 6378
ele 6378
Amatora 6377
atinda 6377
rigomba 6376
yafat@@ 6375
Burkina 6372
Hak@@ 6372
mpuz@@ 6372
ntabyo 6372
aniro. 6370
waga, 6370
w’Imari 6369
yakoreshejwe 6369
IYI 6366
akoranye 6366
uzuye 6365
binjiye 6361
icyongereza 6360
kwabo 6359
ungab@@ 6356
abarezi 6355
baharanira 6355
ubwumvikane 6355
ejej@@ 6353
oll@@ 6353
utwite 6353
Kayihura 6352
asira 6352
yatum@@ 6352
Nyabugogo 6350
gusub@@ 6350
(UN@@ 6349
ehe 6349
birenga 6348
nk' 6348
“I@@ 6347
Shar@@ 6345
U, 6345
ituye 6345
yawe, 6345
"B@@ 6344
Polisi, 6344
bingana 6342
Clinton 6340
gutsind@@ 6338
Wungirije 6337
ababaye 6336
hatang@@ 6336
Ij@@ 6335
gufatira 6335
ihira 6335
sant@@ 6335
y’ab@@ 6334
di@@ 6333
enwa 6333
wasanga 6333
enyeri 6332
q@@ 6332
ubushishozi 6332
ibikorerwa 6331
akang@@ 6329
yibaza 6328
Ntakirutimana 6326
ien@@ 6326
Mirenge 6324
inyum@@ 6324
500@@ 6323
bumvise 6323
Bubiligi, 6322
Rwamagana, 6322
Sadate 6322
Sandra 6322
egereza 6322
bavutse 6321
umugongo 6321
Andrew 6320
RGB 6319
nsengero 6319
All@@ 6318
RP 6318
U. 6317
amakenga 6317
n’imyaka 6316
abakundana 6315
48@@ 6314
ihangana 6314
Gl@@ 6313
ubugenzuzi 6313
Sankara 6312
y'Abaminisitiri 6310
C), 6309
France 6309
rist@@ 6309
Development 6308
Rutanga 6308
abakunda 6308
n’urwego 6308
ikinyarwanda 6305
éd@@ 6305
Mu@@ 6304
abato 6304
nkub@@ 6303
28, 6302
n’imikorere 6302
2008, 6301
MUT@@ 6301
akurikiranwa 6301
ukajya 6301
anjemo 6300
babis@@ 6300
igikoresho 6300
yabasabye 6300
akarusho 6297
egukanye 6297
hateganyijwe 6297
yigenga 6297
bikenewe 6296
ifuzwa 6296
ntab@@ 6296
IMVAHO 6295
Vision 6295
aa@@ 6294
anditswe 6294
yohereza 6294
ihawe 6293
a!” 6292
akamaro. 6292
dukunda 6292
rye. 6292
And@@ 6290
ntari 6289
Bufaransa. 6288
byo, 6288
ikura 6288
Usanga 6287
emurira 6287
akunzwe 6286
mukundana 6286
riteganya 6285
Abasore 6284
Issa 6284
bahereye 6284
nk’abandi 6284
byagenda 6283
Oda 6282
padiri 6282
ukay@@ 6282
umvikan@@ 6282
uzum@@ 6282
kirwa 6281
ubugenzacyaha 6281
barangiza 6280
inkingo 6280
musirikare 6279
umuririmbyi 6278
kabir@@ 6277
.000.000 6276
umubyara 6276
Aime 6275
mukino. 6275
Yobu 6273
muf@@ 6273
afit@@ 6272
babanye 6270
Hoteli 6269
y'Iburasirazuba 6269
War@@ 6268
umbi, 6268
amuz@@ 6267
NIY@@ 6266
ry’umuryango 6266
umiwe 6266
ushyize 6266
abakorera 6262
ambo, 6261
bongera 6261
wiza 6261
….@@ 6261
n’amateka 6259
rwisumbuye 6259
ry’abantu 6259
Akanama 6258
abakekwaho 6258
areng@@ 6258
nakoze 6258
KAM@@ 6257
Juventus 6256
Luka 6255
agirana 6255
ry’uyu 6255
Claud@@ 6254
yitwara 6252
Kanye 6251
bazam@@ 6251
urujya 6251
Id@@ 6250
azwiho 6250
Dor@@ 6249
Nam@@ 6249
ail@@ 6248
anyu 6248
bamara 6248
ukuye 6248
ungo, 6248
Ob@@ 6246
abaye, 6246
inkw@@ 6246
otsi 6246
yemo, 6245
aragara. 6244
ry’igihugu 6244
yaganiriye 6244
wemerewe 6243
abafat@@ 6240
nimugoroba 6240
n’abakunzi 6239
Indege 6238
gato, 6238
iboneye 6238
bakize 6237
imbaraga, 6236
ambasaderi 6235
bazanye 6235
"Mu 6234
Rev 6234
ibona. 6234
handi 6233
yerekeye 6233
gufatirwa 6232
kutaz@@ 6232
umubyibuho 6232
nyamaswa 6231
ifuza. 6229
nibaza 6229
DR 6228
ezo. 6228
yaray@@ 6226
Amerik@@ 6225
Umutoni 6225
utuntu 6225
Cyangwa 6224
aut@@ 6224
Wowe 6223
ezeho. 6223
Tito 6222
icyaha, 6220
asir@@ 6219
ifurije 6219
urinda 6218
� 6217
and, 6216
asirazuba. 6216
ella 6216
ikiyaga 6216
rwayo 6215
Ijwi 6214
Coll@@ 6213
amarenga 6213
esi 6212
ubashe 6212
urabona 6212
n'inshuti 6211
yapf@@ 6211
Isaac 6210
oroshya 6209
Aburahamu 6206
TR@@ 6206
bamb@@ 6206
kubabwira 6206
oramo 6206
byiza. 6205
ujij@@ 6205
ungabunga 6205
bicuruzwa 6204
gihari 6204
Maj@@ 6203
bwak@@ 6203
umusatsi 6202
bicaye 6201
bwaba 6201
n'iz@@ 6201
Etienne 6200
kitar@@ 6200
abivuga. 6199
batavuga 6199
ifot@@ 6194
CA@@ 6193
Rev. 6193
60@@ 6192
1% 6191
7-@@ 6191
Rihanna 6189
itan@@ 6188
Olempike 6187
Vanessa 6187
bishe 6187
eth@@ 6187
imizi 6187
vu 6186
Areruya 6184
twagiranye 6184
binjira 6183
afungura 6182
cyakozwe 6182
aswa 6180
ation) 6177
bifashishije 6176
wanjye@@ 6175
z' 6173
Kiriziya 6171
yagar@@ 6171
Kagere 6170
res 6170
y’iri 6168
Kh@@ 6167
Pat@@ 6167
asiyo 6163
bugira 6163
imitsi 6163
admin 6162
“Icyo 6162
ZA 6161
igen@@ 6161
FPR-Inkotanyi 6160
ibikor@@ 6160
ahinduye 6158
ungo. 6158
KANDA 6157
uhura 6157
amatara 6156
w’umuk@@ 6156
gutaramira 6154
binyuriye 6153
E.@@ 6152
ubwitange 6151
y’amaj@@ 6151
Dufite 6150
afashwa 6150
ale@@ 6150
uburezi, 6150
uturuka 6150
"Nd@@ 6149
bagasaba 6149
amabara 6148
induk@@ 6148
cy’iminsi 6147
aso 6146
yinjiza 6146
bwato 6145
igo, 6145
ateguwe 6144
misa 6144
butegetsi. 6143
ebana 6143
ibyerekeye 6143
zigira 6143
akaby@@ 6142
Nari 6141
n'abas@@ 6140
natangiye 6140
utegeka 6139
erets@@ 6138
gucur@@ 6138
ukag@@ 6138
batabona 6136
n’abaganga 6136
o?@@ 6135
yin@@ 6135
d, 6134
ibashe 6134
Harerimana 6133
eweho 6133
Manishimwe 6132
ezera 6132
warag@@ 6132
We@@ 6131
bafit@@ 6131
y’ubur@@ 6131
Prince 6130
kwishim@@ 6130
Uruganda 6129
bati: 6129
gukurikir@@ 6129
itung@@ 6129
umutware 6126
eli. 6125
yabahaye 6124
byagaragajwe 6123
waye, 6120
amabanki 6119
n’ebyiri 6119
agifite 6118
ibyaha, 6118
47@@ 6117
gikora 6117
igara 6116
angan@@ 6115
kugar@@ 6113
kuzenguruka 6113
ugushaka 6112
yaboneyeho 6112
itah@@ 6111
ruzaba 6111
Ha@@ 6109
ondo. 6109
guhemba 6107
ubuc@@ 6107
utang@@ 6107
injwa 6106
ziva 6106
iye.” 6105
babiri. 6104
2-1 6102
3° 6102
a- 6102
out@@ 6102
y’Akarere 6101
n'ingabo 6099
twat@@ 6099
babash@@ 6097
mvura 6097
AYO 6096
anjye, 6096
orerwa 6096
nyarwanda, 6095
Imari 6093
UF@@ 6093
ibyamamare 6092
wapfuye 6092
akat@@ 6090
Anita 6089
bategura 6089
emp@@ 6089
ango, 6088
/0@@ 6087
Mc@@ 6086
atangije 6085
Intore 6084
ONG@@ 6084
cy’ingenzi 6084
imbuka 6084
imut@@ 6084
kubaho. 6083
ryawe 6083
nigeze 6082
ntihagire 6082
Day 6081
Malawi 6081
ambanya 6081
urusobe 6081
Amash@@ 6080
emu 6080
ibisanzwe 6080
imisanzu 6080
51 6079
amacumbi 6079
urage 6079
akore 6078
kwambura 6078
w’iri 6078
amahanga, 6077
byash@@ 6077
ut 6076
badakwiye 6075
Amavubi, 6074
itandukaniro 6074
imbabazi. 6073
by’ubucuruzi 6072
Rwanda) 6071
Yam@@ 6071
l’@@ 6071
Dr.@@ 6070
wayo, 6070
ibitangaza. 6069
w’umuhungu 6069
gikorwa, 6068
[AMAFOTO] 6066
joro 6065
kudufasha 6064
unj@@ 6064
n’umunyamakuru 6063
Rudasingwa 6062
Kav@@ 6061
yabah@@ 6061
y’Iburasirazuba, 6059
bakiriye 6058
ert 6057
n’amas@@ 6057
ungirije 6057
bw’amahoro 6056
cyane.” 6056
ezeyo 6056
kwem@@ 6056
ogosh@@ 6056
Mel@@ 6055
mbonye 6055
turacy@@ 6053
vir@@ 6053
15:@@ 6052
n’amagambo 6051
Phil@@ 6049
banyuze 6049
bikoreshwa 6049
Red@@ 6045
agateganyo 6045
aragaraho 6044
irimbi 6043
n'umuntu 6043
esengura 6042
mukeba 6041
uba, 6040
ukam@@ 6037
yatunguwe 6036
a’, 6034
imisatsi 6034
A.@@ 6033
SO@@ 6033
bisanzwe. 6033
gore 6033
w’umuryango 6033
é, 6033
bworoshye 6032
bashak@@ 6031
yanjye, 6031
ongereza 6030
OH@@ 6029
rwe, 6029
muriro 6028
Cent@@ 6027
kwicisha 6026
iti: 6025
yigish@@ 6025
n’ibis@@ 6024
D, 6023
Nak@@ 6023
ibwir@@ 6023
induru 6023
ngeze 6023
z’uko 6023
DJ 6022
ipfunwe 6022
ahageze 6021
we." 6018
ky 6017
tumenye 6015
aramira 6014
ababaza 6011
nyirizina 6011
amaza 6010
AN 6009
basub@@ 6009
birumvikana 6007
n’abafatanyabikorwa 6007
yemerera 6007
n'ibikorwa 6006
amamar@@ 6005
nik@@ 6005
ushingiye 6005
isanduku 6004
y’epfo 6004
n’ubut@@ 6003
rigaragaza 6003
y’ubuk@@ 6003
Ntit@@ 6001
kwiruka 6000
Let@@ 5999
ushinja 5998
Kiz@@ 5995
Nor@@ 5995
Te@@ 5995
Sel@@ 5994
iyemo. 5993
y’imikino 5993
muto, 5992
ood 5992
Jean-@@ 5991
impanuro 5990
umucyo 5989
avuz@@ 5988
police 5988
gusigasira 5987
kose, 5987
Umuhango 5986
guhiga 5985
yasinye 5985
"Tw@@ 5984
ambasade 5984
ekerezaho 5984
Gashumba 5983
areka 5983
ishakira 5983
Twese 5982
angavu 5982
yanavuze 5982
igenga 5979
kwikorera 5979
umuyaga 5978
Bamporiki 5977
FD@@ 5976
nguzanyo 5976
ijijwe 5975
kidasanzwe 5975
Wenda 5973
Bad@@ 5972
ORE 5971
ipe 5971
n'abakobwa 5970
Del@@ 5969
iyumvamo 5969
amba@@ 5968
muhanda. 5968
56 5966
Hop 5966
NO 5966
las 5966
ubats@@ 5966
umugore. 5966
ashinga 5964
bukorwa 5964
Hitimana 5963
yavuzeko 5963
¼ 5963
Covid-19. 5961
bashyir@@ 5961
h’@@ 5961
amafarang@@ 5960
enwe 5960
umushyitsi 5960
Abaz@@ 5959
beg@@ 5959
ushimira 5959
Ubuhinzi 5958
intore 5958
umufana 5958
uzabera 5956
hafi. 5955
mutima. 5955
burundu, 5954
bw'igihugu 5953
AMA 5952
orozi 5952
ufit@@ 5952
Gerard 5951
sal@@ 5951
Bob 5950
Jan@@ 5949
asozwa 5949
banyuranye 5949
barusheho 5947
ikurikirana 5947
zatanzwe 5947
Juvenal 5946
Urwibutso 5946
byafashwe 5945
anzemo 5943
byabaga 5943
Uburundi 5942
end 5942
kuvana 5942
yatorewe 5942
iyobora 5941
uki 5941
P) 5940
kundi 5940
muganda 5940
ubahirizwa 5940
Jack 5939
ry'umupira 5939
ANO 5938
n’umuh@@ 5938
uni 5938
akagera 5936
2014@@ 5935
Yeremiya 5934
ijije 5934
iterabwoba, 5932
n’umutwe 5932
Afurik@@ 5930
Yab@@ 5930
inyigo 5930
makimbirane 5930
bubasha 5929
/06/201@@ 5927
ambwe 5927
bwose. 5927
Perefegitura 5926
Umutesi 5926
Isoko 5925
biragoye 5923
amukunda 5922
gu@@ 5922
kirenze 5921
ihur@@ 5920
kwimura 5920
yator@@ 5920
ye.@@ 5920
wumve 5919
ebeye 5918
ntayo 5918
Besigye 5917
Komeza. 5917
n'amanota 5917
Tubibutse 5916
izihe 5916
make, 5915
(mu 5914
50% 5914
Rwigema 5914
wandika 5914
waga. 5912
Bene 5910
isanz@@ 5910
rurimo 5910
nkemurampaka 5908
abyaye 5907
bagirana 5907
Azam 5906
gikorwa. 5906
n’amahoro 5906
25. 5905
ibyakozwe 5905
49 5903
amahano 5903
irond@@ 5902
ibarura 5901
ryas@@ 5901
Agnes 5900
iba, 5899
27, 5898
enewe, 5898
wabona 5898
yageneye 5898
inganya 5897
iyo. 5897
udi 5897
59@@ 5896
Igihugu. 5894
Umuraperi 5894
gitangaza 5894
acu. 5892
iritse 5892
nkana 5891
edi 5890
Luc@@ 5889
kubabar@@ 5889
kwishy@@ 5889
barw@@ 5888
ubugizi 5888
gufashwa 5887
yashinzwe 5887
Igikombe 5885
rwe. 5885
ry‟@@ 5885
umusemburo 5883
Abitabiriye 5882
Dis@@ 5881
ayeho 5881
engan@@ 5878
+ 5877
bafitiye 5877
egereje 5877
op 5877
Bid@@ 5876
bagezeho 5876
ntibah@@ 5875
Mandela 5874
guterana 5874
hos@@ 5873
itwaga 5873
virus 5873
Denis 5871
EYE 5871
ubize 5870
z’ubuyobozi 5870
Ibuka 5867
ANYE 5866
buy@@ 5866
Amat@@ 5864
gitanga 5864
ugu@@ 5863
FDLR, 5862
President 5861
hakiyongeraho 5861
n'aba 5861
obowe 5860
irimbira 5859
Inter@@ 5858
batan@@ 5858
ibendera 5856
igabanya 5856
ngoro 5856
Kid@@ 5855
ambiriye 5855
gutsindira 5855
kunga 5854
eguye 5853
zijya 5853
peteroli 5852
O: 5851
abanyije 5851
agizwe 5851
bitoroshye 5851
amay@@ 5848
ibyam@@ 5847
mibanire 5847
afatirwa 5846
iperereza. 5846
/07/201@@ 5845
Amag@@ 5845
igisasu 5845
Kis@@ 5844
rin@@ 5844
Djuma 5842
bw‟@@ 5842
yagenze 5842
ireba 5841
Ikigega 5840
bidafite 5840
uzam@@ 5840
Bwongereza. 5839
birirwa 5839
cy'Igihugu 5839
bikomoka 5838
Iy@@ 5837
anzweho 5836
bagombye 5836
koga 5836
angwamo 5835
mirima 5835
ihishe 5834
abanywa 5833
Mit@@ 5832
bwenge 5832
3) 5831
UMUT@@ 5831
bazakora 5831
d’Ivoire 5831
ty 5829
Source: 5827
a.’’ 5827
bakaby@@ 5827
imyuka 5825
ikora, 5824
yashinze 5824
z’uku 5822
bamuha 5821
n’umuhungu 5821
upa 5821
if 5820
ryam@@ 5820
IBYO 5817
inya, 5817
unika 5817
cyam@@ 5815
yesh@@ 5815
abashumba 5814
ashyigikira 5813
baterwa 5813
erutse 5813
ububabare 5813
yatowe 5810
Hategekimana 5808
obozi, 5808
BAK@@ 5806
hambere 5806
ubutegetsi. 5804
OD@@ 5803
oresheje 5803
indangamuntu 5802
Ta@@ 5801
isilamu 5801
uhita 5800
yitwaga 5800
ete, 5798
9,@@ 5797
anyi. 5797
byifashe 5797
Nday@@ 5796
azakora 5795
Impunzi 5794
bukomeje 5794
ihuje 5794
n’inzu 5794
egeka 5792
gukomeretsa 5792
ESE 5791
Ibigo 5791
barya 5791
d. 5791
guhererekanya 5791
n'iki 5791
yananiwe 5791
Indwara 5789
YAR@@ 5788
Ya 5788
imi 5788
mugari 5787
ryiza 5787
Bahati 5786
bato. 5786
n'iby@@ 5785
odesha 5785
Mohammed 5784
arindwi 5783
bakurikirana 5782
umudendezo 5782
Buholandi 5781
Urutonde 5781
hafi, 5781
mubona 5781
Byiringiro 5779
abwa, 5779
itiye 5779
erekezo 5778
yaduhaye 5778
etse. 5777
avu 5776
enzi, 5775
Mart@@ 5774
n’in@@ 5774
ABANDI 5773
atabwa 5773
baramutse 5772
bijyana 5770
Australia 5769
Iranzi 5769
byihariye 5769
umusozi 5767
angayik@@ 5766
aramenyekana 5766
orere 5766
ubuhinzi, 5766
‘‘@@ 5766
Umutungo 5765
yaza 5765
ahanganye 5764
November 5762
Uburayi 5762
batandukanye, 5762
cent@@ 5762
yaturutse 5762
UP@@ 5761
bikomeza 5761
ibyar@@ 5761
ium 5760
Commissioner 5759
Liber@@ 5759
bamuk@@ 5758
ingiza 5758
bakirinda 5757
MUH@@ 5756
Rero 5756
irikana 5756
no@@ 5755
53 5754
Rugamba 5754
ashakisha 5754
igerageza 5754
's 5752
Res@@ 5751
biteze 5751
END@@ 5750
kinyarwanda 5750
ntibiz@@ 5750
ABAT@@ 5749
Gicumbi, 5747
iga. 5747
ongo. 5747
umunota 5747
Gatandatu, 5743
umutima. 5743
Kristo, 5742
aherekejwe 5741
Abakorinto 5740
imiyoboro 5740
mbiri 5740
Afr@@ 5739
abaw@@ 5739
iyongera. 5738
mwashakanye 5738
n'abandi. 5738
yabyaranye 5738
4% 5737
eguk@@ 5737
politiki. 5737
umukiriya 5736
utaha. 5736
yira 5736
CS@@ 5735
ushimishije 5735
utu, 5735
yasubiye 5734
Ethiopia, 5733
inyuranye 5733
iriritse 5733
ziheruka 5733
Mulisa 5732
gikor@@ 5732
itaye 5732
wabaga 5732
én@@ 5732
cyerekezo 5731
ibibazo. 5730
n'amahanga 5730
SE 5729
nin@@ 5729
KAY@@ 5728
Umuvunyi 5728
rwab@@ 5727
erayo 5725
roho 5725
bazitabira 5723
bishinzwe 5722
irimo, 5722
Mayor 5721
yayoboye 5721
Afrique 5720
Sc@@ 5720
Egide 5718
basaza 5718
gitaha 5718
ibasiwe 5717
y’Amerika 5717
zitanga 5717
RAB 5716
bameny@@ 5716
umwana. 5716
yiruk@@ 5716
bagarutse 5715
bazahabwa 5714
bibar@@ 5713
ubworozi 5713
ushanya 5713
ambutse 5711
eni, 5710
uranyi 5708
ibikubiye 5707
yafung@@ 5707
ibitangaza, 5706
ogam@@ 5706
Ne@@ 5705
ereko 5704
ibihingwa 5704
ishingira 5703
Uri 5702
ter 5702
Nibyo 5701
gutabar@@ 5701
Icyumweru 5700
ibiy@@ 5700
umuturanyi 5700
aniro, 5699
bw’amabuye 5699
basoje 5698
ndimo 5698
bwose, 5697
imidugudu 5697
HO@@ 5696
yaragize 5696
zafashwe 5696
RY@@ 5695
ejejeho 5694
erero 5694
Best 5693
bipimo 5693
zituruka 5692
abanyabyaha 5691
gukaza 5690
usubiza 5689
myumvire 5688
port 5688
Sen@@ 5687
ijuru@@ 5687
kutabona 5687
CNLG 5686
twatangiye 5684
Tigo 5683
align="alignnone" 5683
bagatanga 5683
by’abaturage 5682
umuhondo 5682
Frw) 5681
Kabiri, 5681
akabar@@ 5681
yakoz@@ 5680
yishim@@ 5680
Nanjye 5679
akemura 5679
ana,@@ 5679
ikirenga 5679
azay@@ 5678
bukeye 5678
fat@@ 5678
bagatangira 5677
nakw@@ 5677
ekw@@ 5676
engaga 5676
myiteguro 5675
Lt. 5674
ité 5674
aburana 5673
ivuriro 5673
iruk@@ 5672
Jam@@ 5671
gisanzwe 5671
y’akazi 5671
“Muri 5671
kwambuka 5670
we” 5670
era.” 5669
eso 5669
banyu 5668
i:@@ 5668
imirima 5667
itsa 5666
kudut@@ 5666
n’abashinzwe 5666
byageze 5665
mac@@ 5665
iyongereyeho 5664
ela 5661
ubwoba, 5660
yakoreraga 5660
by’amafaranga 5659
o.com 5659
rizwi 5658
onko 5657
gatanu, 5656
kump@@ 5656
atunze 5655
bazwa 5655
Jonathan 5654
araba 5654
‟@@ 5653
10.@@ 5652
ezweho, 5652
yubatswe 5651
Johnson 5650
erane 5650
n’iny@@ 5650
Umugenzuzi 5647
ebere 5647
inka, 5646
mukuru, 5646
warwa 5646
bwavuze 5645
abinjira 5644
gushyirwaho 5644
habe 5644
isanzure 5644
isuku, 5643
iza.” 5643
araga 5642
bazay@@ 5642
uduh@@ 5642
abanyam@@ 5641
Adolphe 5640
ezweho. 5639
angu 5637
eau 5636
zam@@ 5636
umutekan@@ 5635
Mata, 5634
cyabo, 5634
amatike 5633
44@@ 5632
bung@@ 5630
ey, 5630
ity@@ 5630
y’uwo 5630
Mbere, 5629
anyam@@ 5629
ibyaha. 5629
wacu, 5629
birometero 5627
iciye 5627
ye? 5627
bamo 5626
by' 5624
o). 5624
ibasira 5623
wa: 5623
Humble 5622
ali. 5622
intambara, 5622
iriye. 5622
yegukana 5622
Bill 5621
andits@@ 5621
imiye 5621
utug@@ 5621
imana. 5620
Abaganga 5619
ingabire 5619
angaz@@ 5618
buriho 5618
unganizi 5618
ius 5617
agatangira 5616
bikwiriye 5616
binini 5616
gukin@@ 5616
kutug@@ 5616
bakira 5614
cy’uyu 5614
a”, 5613
bakore 5613
Burayi. 5612
may@@ 5612
ati:" 5611
umbik@@ 5611
yahagaritswe 5611
ahara 5610
amategek@@ 5610
shyirahamwe 5610
ashing@@ 5609
kunanirwa 5609
umuhigo 5609
Bushinwa, 5608
alubumu 5608
yakinaga 5608
giteye 5605
idi 5604
ubuso 5604
(Y@@ 5603
AW@@ 5603
ahereye 5602
barwanya 5602
ea 5602
kurya, 5602
ebe, 5601
umukiza 5601
batum@@ 5600
tugari 5600
Claudine 5599
ahagararira 5599
data 5598
Imana? 5597
Mfite 5597
PO@@ 5597
enyeshwa 5597
inganire 5597
ivanjiri 5597
bitabye 5596
14:@@ 5595
bw’Igihugu 5595
uburozi 5595
ambe 5594
andukanye@@ 5593
ma@@ 5592
nkingi 5592
ijosi 5591
azat@@ 5590
imbaraga. 5590
oroheje 5590
bikaza 5589
Bull 5588
ongereye 5588
byerekeranye 5587
ikore 5587
kubur@@ 5587
obanuriye 5587
uranya 5587
Google 5586
Nic@@ 5586
Do@@ 5585
ariye, 5585
byatangaje 5583
sinema 5582
uriho 5582
upfa 5580
Imibereho 5579
cy’umwaka 5579
bashyizwe 5578
ufasha. 5578
Umwanditsi: 5576
nkoranyambaga, 5576
n’amashusho 5576
tubari 5576
umbur@@ 5575
Kayibanda 5574
buzima. 5574
leta. 5574
twinshi 5574
amusubiza 5573
uzumye 5573
by'amashuri 5571
ntwaro 5571
wemerera 5571
enyekan@@ 5570
KO@@ 5569
igikiye 5569
eneye, 5568
kwibasirwa 5568
ubuhungiro 5568
ibinyobwa 5566
Rwab@@ 5565
Umuhuzabikorwa 5565
maso, 5565
y’Ububanyi 5565
abirabura 5564
isoko. 5564
6% 5563
eya, 5563
nzozi 5562
INT@@ 5561
REB 5561
Savio 5560
iranya 5560
habamo 5559
ua 5559
urw’@@ 5559
INDIRIMBO 5558
bakura 5558
anyuz@@ 5557
car@@ 5557
koko. 5557
n’itegeko 5557
wandikiye 5557
Demukarasi 5556
ibukije 5555
bisobanuro 5554
emejwe 5552
imenyesha 5552
mup@@ 5552
ububanyi 5551
yavugiye 5551
AGA 5550
bumvaga 5550
do 5549
emwa 5549
kany@@ 5549
wayo. 5549
Lick 5548
uruhare. 5548
Maj. 5547
Abay@@ 5546
ijye 5546
w’Intebe, 5546
Op@@ 5545
Philippe 5545
oda 5545
ym@@ 5545
House 5544
ebuje 5544
neza.” 5544
n’abanyeshuri 5544
21. 5543
Bonaventure 5543
amatora, 5543
y'Amajyepfo 5543
Bish@@ 5542
asohok@@ 5542
iyicwa 5542
Cyumweru, 5541
amv@@ 5541
bizagenda 5541
hafatwa 5541
Big 5540
Igitego 5540
itabye 5538
uburiganya 5538
icaye 5537
ingurube 5537
irimbye 5536
ereza, 5534
ibibazo, 5534
UMVA 5533
bagaragaye 5533
n’abac@@ 5533
orora 5533
akwir@@ 5532
gihano 5532
gishy@@ 5532
n'ibihugu 5532
satani 5531
icyari 5530
si, 5530
Recommended 5529
ahung@@ 5528
arana 5528
akav@@ 5526
inam@@ 5526
uriramo 5526
80@@ 5524
bataram@@ 5524
mugitondo 5523
rwat@@ 5523
/08/201@@ 5522
let@@ 5521
rwagati 5521
yakubise 5521
abagororwa 5520
bikwiye. 5519
nyeshyamba 5519
ao 5518
avuyemo 5518
icanyi 5518
yarashwe 5518
abyar@@ 5517
ibaze 5517
muganga, 5517
Wa 5516
aragajwe 5515
turashaka 5514
yama 5514
Bralirwa 5513
imfashanyo 5513
abagezaho 5512
Joel 5511
anduku 5511
atabasha 5511
eger@@ 5511
akah@@ 5510
ambo. 5510
igabanuka 5510
abanyapolitiki 5509
mugongo 5508
PD@@ 5507
Pacifique 5507
abagore. 5506
icumbi 5506
ugaragara 5506
Canada, 5505
MUB@@ 5505
barimu 5505
kwinj@@ 5505
n'imiryango 5504
cyuho 5503
ntibir@@ 5503
Uburezi 5502
gusesengura 5502
koroshya 5502
Ge@@ 5501
abangavu 5501
n'abakozi 5501
n’umutima 5501
risobanura 5501
COM@@ 5500
Rugagi 5499
afungiwe 5499
bashyizeho 5499
Rwisumbuye 5498
US 5497
ereje. 5497
IYA 5496
Kardashian 5496
Tanasha 5496
angano 5496
ose, 5496
DR@@ 5495
UYE 5495
Gh@@ 5494
Patriots 5494
Air@@ 5493
gushim@@ 5493
inzi. 5492
wiho 5492
Dar@@ 5491
Ibit@@ 5491
ibereye 5490
ukagera 5490
baraby@@ 5489
bizamini 5487
str@@ 5487
wiz@@ 5487
nkiri 5486
tuzakomeza 5484
urupapuro 5484
amaraso, 5483
ngufu, 5483
n’imodoka 5483
kuri@@ 5482
rukingo 5482
imid@@ 5481
Ministiri 5479
Rob@@ 5478
avuganye 5478
Andre 5477
(CIP) 5476
Nizzo 5476
izana 5476
/01/201@@ 5475
/03/201@@ 5475
a.—@@ 5475
eguriye 5475
ivanga 5475
Mucyo 5474
ahandi. 5474
inira 5473
lin@@ 5472
eh 5471
ibaho 5470
mubiri. 5470
oteri 5470
rurerure 5470
icyiza 5469
yagendaga 5469
ifuza, 5468
Abongereza 5467
INA 5467
agut@@ 5467
urupfu. 5467
YESU 5465
yambar@@ 5465
Abab@@ 5464
avuzweho 5464
ibarirwa 5464
Julienne 5463
iyemo, 5463
yavuga 5463
bifata 5462
byongeye 5462
mbar@@ 5462
wandik@@ 5461
enzuzi 5460
yakin@@ 5459
abyo. 5458
byugarije 5458
rushanwa. 5457
y’Uburasirazuba 5456
iciriritse 5455
kunganya 5454
ande. 5453
byiganjemo 5453
hakomeje 5453
mugomba 5453
Manir@@ 5452
ivi 5451
ica, 5450
leave 5450
umwere 5450
y’Amajyepfo, 5450
Imirasire.com 5449
dukomeza 5449
Items:Featured 5448
intungamubiri 5448
nkw@@ 5448
ugend@@ 5448
amazamu 5446
cyizere 5445
gatandatu, 5445
kwin@@ 5444
naz@@ 5443
yiganjemo 5443
Noneho 5442
avuga, 5442
mbega 5442
watumye 5442
y’ukwezi 5442
Munyarwanda 5441
abwo 5441
guhatana 5441
waza 5439
Abahinzi 5438
Kud@@ 5438
Wari 5438
ikomeze 5438
imisemburo 5438
videwo 5438
asobanutse 5437
yigaga 5437
kurara 5436
ecuru 5435
FLN 5433
bisabwa 5433
isiyo 5433
ntigaragazwa 5433
w'umukobwa 5433
Kristo. 5432
aseny@@ 5431
atavuga 5431
yabw@@ 5431
8% 5430
AMAKURU 5430
rw’Ikirenga 5430
Ahagana 5429
Rwanda,@@ 5429
dukomeze 5429
gute? 5429
kwemererwa 5429
basig@@ 5428
Cyprien 5427
ebur@@ 5425
engerazuba, 5425
iel 5425
n`@@ 5425
Amatangazo 5423
keza 5422
Melodie 5421
ahurira 5421
enzurwa 5421
apfa, 5419
kubazwa 5419
Med@@ 5418
bakorerwa 5416
nyir'@@ 5415
oron@@ 5415
F) 5414
ack@@ 5413
bigoranye 5412
uch@@ 5412
2: 5411
ituruka 5410
rum@@ 5410
y'igikombe 5410
Claude, 5409
New@@ 5409
Luc 5408
Ngirente 5408
Magana 5407
bw’abaturage 5407
ort@@ 5407
7% 5406
byamug@@ 5406
ory 5406
ohotera 5405
n’abafite 5404
Burengerazuba 5402
amba. 5402
bibiri, 5402
anwaho 5401
Judith 5400
amatora. 5399
bigishwa 5398
umuremyi 5398
AFP 5396
babarizwa 5396
kwiyahura 5396
MB@@ 5395
Pac@@ 5394
kutumvikana 5394
ozeho 5394
bayig@@ 5393
Kanamugire 5392
enyekana. 5391
ntam@@ 5391
/02/201@@ 5390
Wat@@ 5389
serv@@ 5389
umushinjacyaha 5388
Reg@@ 5387
icy'@@ 5386
Twah@@ 5385
mutima, 5385
o/@@ 5385
Brig 5384
pour 5384
tuti 5384
yarakoze 5384
Umuturage 5383
tuzajya 5383
Umuy@@ 5380
basubira 5380
injiramo 5378
/09/201@@ 5377
INZ@@ 5377
bakamw@@ 5377
b’inzego 5377
nkuru. 5377
“G@@ 5377
imbabazi, 5376
n'im@@ 5376
Misiri, 5375
angingo 5374
guhagarikwa 5374
wac@@ 5374
UV@@ 5373
aragera 5373
gato. 5373
ndak@@ 5373
untu, 5372
ongerwa 5371
Nag@@ 5370
kuntu 5370
tuba@@ 5370
Chorale 5369
akurikiye 5369
n’ubush@@ 5369
yakiniye 5369
RI@@ 5368
ukumenya 5368
000. 5367
Inkiko 5367
ry' 5366
ukut@@ 5364
100% 5363
ko@@ 5363
bugaragara 5362
ebyiri, 5362
utwara 5362
zizwi 5362
Jane 5361
impanga 5361
AWE 5360
Werurwe, 5360
itagira 5359
Majyaruguru 5358
UMUG@@ 5358
badepite 5358
kubara 5358
unguka 5358
y'Ubur@@ 5357
babyaranye 5356
cyatanzwe 5355
gika 5355
yamana 5355
azemo 5354
y'agaciro 5354
kakaba 5352
baturage, 5351
gusubizwa 5351
bahat@@ 5350
ét@@ 5349
hotel 5348
wagamo 5348
zifasha 5348
bibe 5347
yaka 5347
yarwo 5347
cy�@@ 5346
ISHA 5345
buzima, 5344
illa 5344
uramutse 5344
bayis@@ 5343
byemezo 5342
icuk@@ 5342
ubuhahirane 5342
utwatsi 5341
Temple 5340
ibikorwaremezo 5340
ware 5340
2019@@ 5339
Amaj@@ 5339
enyek@@ 5339
nkoranyambaga. 5339
ibindi. 5338
kad@@ 5338
Icyongereza 5337
nawe, 5337
zidasanzwe 5337
inota 5336
akaba@@ 5334
itira 5334
ikiraro 5333
Kongo, 5332
itt@@ 5332
uherereye 5332
amadorari 5331
twahawe 5331
uya 5331
Kibungo 5330
SI 5330
byaturutse 5330
byumba 5330
zikwiye 5330
à 5330
Just@@ 5329
umugenzuzi 5329
urangira 5329
n'amafaranga 5328
ansi 5327
ock@@ 5327
Kiv@@ 5325
Rem@@ 5325
kwibaruka 5325
ahari, 5324
akamenya 5324
n’ubumenyi 5324
Ako 5323
FR@@ 5323
ashinze 5323
ategereza 5323
SANGIZA 5322
badashaka 5322
utum@@ 5321
Ndahiro 5320
yaraje 5319
ibigwi 5318
jyewe 5318
ahuriye 5317
y’ibikorwa 5317
kuruh@@ 5316
ombwa 5316
ibonamo 5315
y'ibihugu 5315
yarug@@ 5314
muraperi 5313
zingana 5312
gisa 5311
habaga 5311
mashami 5310
oga, 5310
andikwa 5309
n'ababyeyi 5309
Ver@@ 5308
old 5308
unguru 5307
Nyungwe 5306
w’Urwego 5306
31@@ 5305
Cyakora 5305
ushyigikira 5305
50. 5304
icum@@ 5304
Su@@ 5303
imodoka, 5301
ion) 5301
mibi. 5301
umunaniro 5301
nyirayo 5300
eyemo 5299
hatari 5298
obanukiwe 5298
ABAK@@ 5296
News 5296
wor@@ 5296
yiruka 5296
ukubita 5295
micye 5294
Djihad 5293
Inkotanyi, 5292
Mukar@@ 5291
n'igihugu 5291
/10/201@@ 5290
Ibimenyetso 5290
bwite, 5290
kwibohora 5290
net 5290
Karongi, 5289
igihumbi 5288
ihinduka 5288
n’ind@@ 5288
umenyesha 5288
Philbert 5287
asoh@@ 5286
n'ibihumbi 5286
imu, 5285
nyak@@ 5285
uruhinja 5285
zikomoka 5285
58 5284
FRW) 5284
abanza, 5284
Amategeko, 5283
Sepetu 5283
bibuka 5281
bitw@@ 5281
harebwe 5281
n’ibindi, 5281
ubwoba. 5280
PS 5279
Umub@@ 5279
Zone 5279
ENY@@ 5278
ntay@@ 5278
asi. 5277
bagashaka 5277
nyanja 5277
ryashyizwe 5277
pas@@ 5276
batay@@ 5275
nzaba 5273
IZE 5272
Kim@@ 5272
batang@@ 5272
koranabuhanga 5272
zizajya 5272
Ingaruka 5271
agatanga 5270
pos@@ 5270
risto 5270
Cas@@ 5269
uburanga 5269
yahind@@ 5268
Murakoze 5267
Salaam 5267
yiyongera 5267
Uncle 5266
@gmail.com 5265
agaz@@ 5264
basize 5264
tutar@@ 5264
2002 5263
age, 5263
butegetsi, 5263
umukoresha 5263
yawe. 5263
isoko, 5262
asiba 5261
ijonjora 5261
induye 5261
Perezida, 5260
dukoresha 5260
Om@@ 5259
empty: 5257
oboka. 5257
onn@@ 5257
Part@@ 5255
kenshi, 5255
umvire 5255
kawa 5254
Nkund@@ 5253
agakingirizo 5253
Gisa 5252
iza? 5252
wara, 5252
adashaka 5251
bibwira 5251
mibi, 5251
Kibeho 5250
atangiza 5250
n’uwari 5250
w'ingabo 5250
“mu 5250
Moussa 5248
izo. 5247
BK 5245
Yahise 5245
amikiye 5244
Jul@@ 5242
basura 5242
.. 5241
AMAFOTO: 5241
bw' 5240
irikari 5240
ahabereye 5239
cy’ubw@@ 5239
ikubita 5239
ntibari 5238
icisha 5236
nc@@ 5236
yozwa 5235
anyar@@ 5234
go 5234
gisirikare. 5233
Masudi 5232
eo 5232
Hon 5230
gusezererwa 5230
ibeshya 5230
ikurikira 5230
kandidatire 5230
migabane 5230
ererana 5229
bibag@@ 5228
yumv@@ 5228
gucuranga 5227
gusobanurira 5227
uwag@@ 5227
anzura 5226
ICYO 5225
kibuga. 5225
Marc 5224
Mobile 5224
obwa, 5223
ubuv@@ 5222
ebe. 5220
uvura 5220
bufat@@ 5219
n'ubuzima 5219
banywa 5218
en. 5218
IBITEKEREZO 5217
zikorera 5216
College 5215
IKA 5215
udashobora 5215
umusaraba 5215
Ukuri 5214
akurura 5214
rec@@ 5214
29, 5212
Pasika 5212
utwa 5212
ishik@@ 5211
ABAR@@ 5210
abashimira 5210
dufitanye 5210
guhisha 5210
nanditse 5210
wamw@@ 5210
igaranye 5208
Kugirango 5207
X 5206
Mich@@ 5205
Muj@@ 5205
yibutsa 5205
akundwa 5204
oherez@@ 5204
amutera 5203
rwos@@ 5203
emur@@ 5202
umuryang@@ 5202
yarwand@@ 5202
Nyakanga, 5201
bagend@@ 5201
bantu. 5201
unguwe 5201
y’igihugu, 5200
Star@@ 5199
el. 5199
Superintendent 5197
amashyi 5196
ishamo 5196
bw’iyi 5194
utswa 5194
cyubahiro 5193
iz'@@ 5193
tuh@@ 5193
kiriziya 5192
COM 5191
iwayo 5190
ushyigikiye 5189
nk’iyo 5187
BAR@@ 5186
mubiri, 5186
kunt@@ 5185
50, 5184
rugeze 5184
bwit@@ 5181
kurimbura 5181
yacy@@ 5181
zitera 5181
Amazi 5180
I) 5180
ihora 5180
ry’umukino 5180
ruherereye 5179
Intare 5177
ahwema 5177
ariy@@ 5177
imirimo, 5177
Past@@ 5176
y’amategeko 5176
gukosora 5175
y’aba 5175
Jolly 5174
amaraso. 5174
igitugu 5173
watangaje 5173
57 5172
itak@@ 5172
avoka 5171
ekuye 5171
biruhuko 5170
aji 5169
byagize 5169
Ngoma, 5167
abizeza 5167
batubwira 5167
ubutumire 5167
undwa 5167
Amaz@@ 5166
e] 5166
n’urupfu 5166
byahise 5165
ebaga 5165
hashyirwaho 5165
ibyara 5165
isosiyete 5165
y’ibi 5165
(Rwanda 5164
baraz@@ 5164
gutoroka 5164
kare. 5164
Kayigi 5163
abicanyi 5163
igihembwe 5163
2020@@ 5162
Loading... 5162
Anne 5161
comp@@ 5160
ryacu 5160
bamusaba 5159
kujyanwa 5159
bata 5158
bwatumye 5158
kand@@ 5158
engo 5157
10% 5156
Ntag@@ 5156
ubupf@@ 5156
I.@@ 5155
esheshatu 5155
bataha 5154
baturanyi 5154
Ngendahimana 5153
aniza 5153
Turi 5151
gito, 5151
ingo. 5150
Kanama, 5149
(d@@ 5148
5000 5147
erega 5147
bimw@@ 5146
…” 5146
atarenze 5145
!!@@ 5144
bikurikira 5144
Tunisia 5143
andag@@ 5143
baturage. 5142
embo, 5141
CAN 5139
Leon@@ 5139
uziko 5139
Akagali 5138
Gicurasi, 5138
ekereze 5138
hatagira 5138
bicwa 5137
cy'isi 5137
gusohoza 5135
twit@@ 5135
Rubavu: 5134
akubita 5134
naram@@ 5134
akuza 5133
gucyura 5133
IMA 5132
yizewe 5132
Mbarushimana 5131
batatu, 5131
na: 5131
umubiri. 5131
Imir@@ 5130
Ot@@ 5130
abakir@@ 5130
w’Ubumwe 5130
ishije. 5129
imib@@ 5128
obanur@@ 5128
umara 5128
w’itorero 5128
2009. 5127
ibinyujije 5127
Huye. 5126
itegereza 5125
akak@@ 5124
gutang@@ 5124
“Ibyo 5124
Remera, 5123
abyem@@ 5123
bukoreshwa 5123
z’abantu 5121
yihaye 5120
okotse 5119
Hon. 5118
uzo 5118
RBA 5117
Ins@@ 5116
iwabo, 5116
ucuruza 5116
itatu, 5115
azaga 5114
yamaganye 5113
RwandAir 5112
aku 5112
igeragezwa 5111
ihagarariye 5111
kurekurwa 5111
n’uruza 5111
Ngarambe 5110
ford 5109
Family 5108
Twebwe 5108
Kimironko 5107
mwami 5107
anyirije 5106
musar@@ 5106
anditseho 5105
Icyiciro 5104
Sacco 5104
uranga 5103
ERO 5102
IGIHE, 5102
asig@@ 5102
anyuzwe 5101
atay@@ 5101
kuzig@@ 5101
nzu, 5101
we”. 5101
/12/16 5100
Gen.@@ 5099
ite, 5099
u” 5099
yaka, 5099
ababajwe 5098
asiny@@ 5098
cyagabwe 5098
ique, 5098
zigenda 5098
akaw@@ 5097
yakabaye 5097
anyuranye 5096
kunganira 5096
99@@ 5095
Bun@@ 5095
Jeune 5094
Natwe 5094
yabonetse 5094
Charl@@ 5093
batwite 5093
Kimihurura 5091
Umva 5091
impamyabushobozi 5091
urukund@@ 5091
biboneka 5090
Flor@@ 5089
si. 5089
akurikiranweho 5088
inkambi 5088
nig@@ 5088
Trans@@ 5086
ebwe 5086
oby@@ 5086
MC 5085
ashize, 5085
mimerere 5085
yana 5085
> 5084
agacir@@ 5084
bitandatu 5083
yambwiye 5082
33@@ 5080
Yat@@ 5080
yashyir@@ 5080
ikiba@@ 5079
uta, 5079
ibu 5078
nta@@ 5078
Timoteyo 5077
n’umubare 5077
bwabaye 5076
uturutse 5076
wahariwe 5076
bifatika 5075
wamus@@ 5075
Tim@@ 5074
rwinshi 5073
Abinyujije 5072
ahanga 5072
azaza 5072
Ngaho 5071
Aloys 5070
etse, 5070
ukuz@@ 5070
arebana 5069
twig@@ 5069
ungeri 5069
y) 5068
1-1 5067
y’iyo 5067
Austin 5066
ikomoka 5066
angirana 5065
mfata 5065
n’abapolisi 5065
ubabaje 5065
udukoko 5065
mubwira 5064
Sentore 5063
Ubun@@ 5063
kirimbuzi 5063
polisi, 5063
Bank@@ 5062
Ntiy@@ 5062
rukerera 5062
Fidele 5061
batajya 5060
yitabira 5060
igikiwe 5059
omeye 5059
="@@ 5058
bitangwa 5058
ibirindiro 5058
niryo 5058
Urug@@ 5057
ururu 5057
akoraga 5056
Igisirikare 5055
bisanzwe, 5055
ibiteganywa 5055
ngombwa, 5054
umurego 5054
umwa. 5054
y’iny@@ 5054
I: 5053
Po@@ 5053
Tel@@ 5052
Lil 5051
tugenda 5051
umu, 5051
n’ingingo 5050
duhura 5049
ambi. 5048
bakora, 5048
aho.” 5047
bw’ibanze 5047
jenoside, 5047
kil@@ 5046
mpungenge 5046
yabak@@ 5046
enateri 5045
Gaby 5044
asohora 5044
y’urukundo 5044
Ikiganiro 5043
acyo. 5043
ntazi 5043
ryashyizweho 5043
“Ur@@ 5043
aniraho 5042
ongora 5042
abatware 5041
usheho 5040
ungurwa 5039
Kristu, 5038
emeranya 5038
kuzah@@ 5038
duc@@ 5037
iserukiramuco 5037
ahabwe 5036
kwesa 5036
yuz@@ 5036
R) 5035
yakubiswe 5034
Duh@@ 5033
Kamonyi, 5033
ipfa 5032
62 5031
Kaguta 5031
guhesha 5031
yanganyije 5031
yabis@@ 5030
bashinze 5029
obwa. 5029
-19@@ 5028
Camp 5028
Hope 5028
Portugal 5028
yahabwaga 5028
byimazeyo 5027
eseng@@ 5027
Africa, 5026
andi. 5026
y’igihugu. 5026
Sit@@ 5025
W 5025
gutwika 5025
ofisiye 5025
azak@@ 5024
itangaz@@ 5023
n’ikoranabuhanga 5023
nkeya 5022
oya, 5022
sen@@ 5022
ukaho 5022
Theo 5021
igisha. 5021
imirasire 5021
kera. 5021
AR 5020
nabandi 5020
ntibash@@ 5020
ubuy@@ 5020
yaremye 5020
Nkunda 5019
ante 5019
bahungu 5019
twaje 5019
uje, 5019
(1) 5018
bacuruza 5018
iyamamaza 5018
rugaragaza 5018
bakur@@ 5017
iriye, 5017
ubudahangarwa 5016
Mbonyi 5015
amya. 5015
isuk@@ 5015
gitondo, 5014
gufung@@ 5014
ibyagezweho 5014
yisumbuye, 5014
.rw 5013
ryigisha 5013
Uganda: 5012
kizajya 5012
uririmba 5012
ill 5011
mpuzabitsina, 5011
Centrafrique 5010
Mbon@@ 5010
ebyiri. 5010
guhamya 5010
VUP 5009
nde? 5009
Nj@@ 5008
nshya, 5008
yashoboye 5008
abajya 5007
kuranga 5007
mil@@ 5006
gace. 5004
n'iterambere 5004
uzana 5003
hakabaho 5002
ry’ubukungu 5002
umubiri, 5001
wafashe 5001
y’Amajyaruguru, 5001
bahunze 5000
interahamwe 4999
66 4997
Bayern 4997
twiteguye 4997
Les 4996
ubi 4996
arans@@ 4995
e’. 4995
ikwirakwizwa 4995
ngenga 4995
amerika 4994
so@@ 4994
uranyije 4994
bw’umw@@ 4993
gukem@@ 4993
iweho 4993
yatangijwe 4993
eberera 4992
nyum@@ 4992
Muhima 4991
Nyandwi 4991
gutorerwa 4991
rushya 4991
maf@@ 4990
uta. 4990
arin@@ 4989
erekanwa 4989
iterabwoba. 4989
amyi 4988
batabasha 4988
ick@@ 4988
igisonga 4988
yifuje 4988
ahari. 4987
Nk'@@ 4985
», 4985
Rugwiro 4984
azamura 4984
ikiciro 4984
ifatira 4983
bakagera 4982
ngo, 4981
ubutaha 4981
bibafasha 4980
oramari 4980
yavutse. 4980
63 4979
Umush@@ 4979
w’ishami 4979
yahamije 4979
aro. 4978
batangije 4978
ibishyimbo 4978
ihutira 4978
zamaze 4978
Yvonne 4977
biti 4976
bizera 4976
n’imv@@ 4976
sek@@ 4976
yerekeranye 4976
Bigirimana 4975
ata, 4975
imishije 4975
(1@@ 4974
amakuru@@ 4974
se? 4974
ERWA 4973
hakozwe 4973
n’iminota 4972
Mont@@ 4971
J. 4970
Umuryango.com 4970
ihangane 4970
y’akarere 4970
erezo 4969
RUT@@ 4967
birego 4966
ikesha 4966
mushy@@ 4966
bwatangiye 4965
Nyabarongo 4964
apfuye. 4964
ron@@ 4964
yakoze. 4964
akamw@@ 4963
wose. 4963
URUPAPURO 4962
itewe 4962
erageze 4961
rikorera 4961
ahagaritswe 4960
icira 4960
n'umukunzi 4960
Musanze. 4958
ix 4958
oloni 4958
umugozi 4958
agije, 4957
umuha 4956
umba@@ 4955
Bany@@ 4953
Laur@@ 4953
Sarah 4953
umeka 4953
byangiza 4952
nkabona 4952
baraye 4951
by’imari 4951
dufata 4951
ANDA 4950
Sar@@ 4950
Tal@@ 4950
arara 4950
bafashije 4950
bitaga 4950
ikiy@@ 4950
n’abasore 4950
“Uyu 4950
Dat@@ 4949
abapadiri 4949
y’abas@@ 4949
aririm@@ 4948
atam@@ 4948
cont@@ 4948
n’imp@@ 4948
imbon@@ 4947
bagar@@ 4945
UMUR@@ 4944
bagura 4944
biganza 4944
iba. 4944
kubwo 4944
uweho 4944
baturiye 4943
ishije, 4943
rurasanga 4943
Bi@@ 4940
wagizwe 4940
,ariko 4939
Oliv@@ 4939
ikibaz@@ 4939
Umurambo 4938
ntuk@@ 4938
bubak@@ 4936
ibibera 4933
n’i 4933
abafash@@ 4932
bihari 4932
w’igihugu. 4932
Chameleone 4931
Iminsi 4931
uje. 4931
buzaba 4930
iracy@@ 4930
/05/201@@ 4929
Sad@@ 4929
ntacy@@ 4929
po@@ 4929
urwanda 4929
Nziza 4928
90@@ 4927
many@@ 4927
yatangiriye 4927
ruc@@ 4926
n’imyitwarire 4925
Math@@ 4924
ngiro 4924
utugari 4924
ém@@ 4924
Rutabana 4923
asenga 4922
banditse 4922
ene. 4922
enyekanisha 4922
obyi 4922
paruwasi 4921
gishize. 4920
“U@@ 4919
Film 4918
a”@@ 4918
bashobore 4918
batunguwe 4918
kumwe. 4918
n’icya 4918
Yvan 4916
atajya 4916
ezo 4916
igenewe 4915
24. 4913
Sinzi 4913
umubabaro 4913
Kimisagara 4911
atangijwe 4911
hano! 4911
ryaba 4911
irangwa 4910
rish@@ 4910
emewe, 4908
mipaka 4907
apolitiki 4906
iyindi 4906
tukan@@ 4906
iby’ingenzi 4905
zaje 4905
EMA 4904
li 4904
Emile 4903
Uwahoze 4903
Aziya 4902
akomeye, 4902
batagomba 4902
ivil@@ 4902
tube 4902
Byumba 4900
gutah@@ 4900
amashuli 4899
umutwaro 4899
kanini 4897
ntako 4897
13:@@ 4896
ahand@@ 4896
bukwiye 4896
cyatuma 4896
yabih@@ 4896
anyweho 4895
munyam@@ 4895
yashyikirijwe 4893
adahari 4892
imijyi 4892
ereza. 4891
Mari@@ 4890
izafasha 4890
obanukirwa 4890
Umwarimu 4889
ekerezaga 4889
ihana 4889
irari 4889
w'iki 4889
N. 4888
bifitiye 4887
Ubudage 4886
bantu, 4885
gahinda 4885
inf@@ 4885
n’ubus@@ 4885
w’igihugu, 4885
onzi 4883
tutari 4883
Yatangiye 4882
anirira 4882
dusanzwe 4882
guteka 4882
umudepite 4882
omyi 4881
umwa 4881
yibuka 4881
amera 4880
gif@@ 4880
Ca@@ 4879
Rwanda; 4879
byakor@@ 4879
ukorana 4879
aguh@@ 4878
akigera 4877
n’ibih@@ 4877
ukanwa 4877
Icyemezo 4876
ariryo 4876
imyumbati 4876
yasuraga 4876
amashanyarazi. 4875
enj@@ 4875
kubamo 4875
w’umuh@@ 4875
bakoresh@@ 4874
kumubaza 4874
ADEPR, 4872
kuvugira 4872
n'umwana 4872
yahabwa 4872
abaminisitiri 4871
Esp@@ 4869
gupfa. 4869
baciye 4867
yanye 4867
kugendana 4866
ombya 4866
atura 4865
buryo, 4865
ishya 4865
urishije 4865
z'Amerika 4865
ikuz@@ 4864
Mane 4863
arwanya 4862
nasanze 4862
urangwa 4862
batashye 4861
yaranye 4861
bakimara 4860
siyansi 4859
ererez@@ 4858
ip 4858
kumufata 4857
akagenda 4856
ibesh@@ 4856
umuriro, 4856
batarengeje 4855
ikigero 4855
utsind@@ 4855
Amashusho 4854
Putin 4854
abakaba 4854
igaje 4854
ihohotera 4854
inge 4854
ARIKO 4853
Imanishimwe 4853
yakuwe 4853
Marcel 4852
byibasiye 4852
kay@@ 4852
uge 4852
avun@@ 4850
enguruka 4849
iko. 4848
Dan 4846
Steven 4846
bashyiraho 4846
byukuri 4846
n’iza 4845
oye@@ 4845
ubuj@@ 4845
e!@@ 4844
4) 4843
agirira 4843
n'umukobwa 4843
udupfukamunwa 4843
Genocide 4842
urugwiro 4842
agashya 4841
ekazi 4841
ots@@ 4841
30% 4840
asimburwa 4840
hanz@@ 4840
akad@@ 4839
bagak@@ 4839
ibin@@ 4839
icuza 4839
izweho 4839
Abanya-@@ 4838
Festival 4838
abasomyi 4838
anenga 4838
cyane,@@ 4838
obozi. 4838
ishimishije 4837
agaze 4836
kwiringira 4836
rikomeje 4836
y’ing@@ 4836
ambur@@ 4835
mutego 4834
Urupfu 4833
ibyah@@ 4833
uzasanga 4833
Academy 4832
Karenzi 4832
Uwizeye 4832
Maurice 4830
e’, 4830
yahindutse 4830
undana 4829
FA 4828
mid@@ 4828
umugeni 4828
imburwa 4827
sel@@ 4827
ubaz@@ 4827
bagaragara 4826
ing, 4826
unganye 4826
Bash@@ 4825
anasaba 4825
aragiye 4825
umunya 4825
Alex@@ 4824
irahira 4824
uman@@ 4824
ision 4823
t, 4823
bibabaje 4822
imin@@ 4822
ishyiramo 4822
ics 4821
koroh@@ 4821
rubanda. 4821
a", 4820
abuh@@ 4820
bakig@@ 4820
ugukora 4820
kubabara 4819
kuryam@@ 4819
ondera 4819
tuza 4819
umwaka, 4819
baheruka 4818
erah@@ 4818
umvikane 4818
unguranye 4818
uzab@@ 4817
z’umugoroba 4817
ugirira 4816
adusaba 4815
igendera 4814
ement@@ 4813
Ven@@ 4812
e:@@ 4812
y’amazi 4812
cy’Isi 4811
wa." 4811
Han@@ 4809
niz@@ 4809
PGGSS 4808
n’amatorero 4808
Clarisse 4807
arwanda. 4807
ingan@@ 4807
Met@@ 4806
burengerazuba 4806
uham@@ 4806
RA 4805
gito. 4805
(6) 4804
Kristu. 4804
wa”. 4804
bisoban@@ 4803
by’ubuzima 4803
Dubai 4802
Umunyarwandakazi 4802
gac@@ 4802
ereranyije 4801
org@@ 4801
abaterankunga 4800
egek@@ 4800
buhungiro 4799
n’abaz@@ 4799
yaratangiye 4799
anishwa 4798
arane 4798
kwivuza, 4798
2015-0@@ 4797
Os@@ 4797
byuma 4797
uhagaze 4797
aburirwa 4796
umurava 4796
karimo 4795
oyi 4795
yibasiye 4795
Nzeyimana 4794
So@@ 4794
y’abak@@ 4794
pol@@ 4793
n’ahandi. 4792
umunyu 4790
rirambye 4789
yifatanyije 4789
3-0 4788
BYANYU 4788
atiye 4788
wa) 4788
Nik@@ 4787
pasiteri 4787
"Hari 4786
twemera 4786
Kamena, 4785
ababyeyi, 4785
asanzwe. 4785
bakinnye 4785
gutandukanya 4785
ly@@ 4785
w'i 4785
bishyura 4784
biha 4783
ishe. 4783
kuba, 4783
ubabarira 4782
yarangiza 4782
yawo 4781
Igifaransa 4780
Nsanz@@ 4780
ab'@@ 4780
ryanjye 4779
udut@@ 4779
visi 4779
CL@@ 4778
biram@@ 4778
Twar@@ 4776
ishoti 4776
aguwe 4775
aweho 4775
bazas@@ 4774
ururwa 4774
yafunzwe 4774
1) 4773
babwira 4773
kwiga, 4773
baganga 4772
abaturarwanda 4771
abafata 4770
bigaragarira 4770
ererek@@ 4770
kumena 4768
meza, 4768
ngufu. 4768
ubabaza 4768
70@@ 4767
itirira 4766
yizeza 4766
Abakora 4765
Ingoma 4765
kwiv@@ 4765
Inshuti 4764
Yezu. 4764
abatur@@ 4764
akundaga 4764
birwa 4764
risto, 4764
se. 4764
umugabo, 4764
bibuga 4763
kuzahura 4763
Umukunzi 4761
atora 4761
iyumvisha 4761
koherezwa 4761
abayisilamu 4760
bihugu, 4760
frw@@ 4759
ish 4759
zitar@@ 4759
140 4758
Biruta 4758
ADE@@ 4757
byavuye 4757
kuduha 4757
tundi 4757
eke. 4756
n'abagabo 4756
n’imis@@ 4756
ukoreye 4756
Nas@@ 4755
Trump, 4755
amayero 4755
Iyamuremye 4754
bana, 4754
80% 4753
ategerejwe 4753
bw�@@ 4753
cyitabiriwe 4753
mureke 4752
PGGSS@@ 4751
kigizwe 4751
Salomo 4750
yahamagaye 4750
uw'@@ 4749
Day@@ 4748
ibirarane 4748
kugezwa 4748
sheki 4748
Gusa, 4747
Nibwo 4747
by’ibanze 4747
w’umwana 4747
yigira 4746
anyijwe. 4744
ahahoze 4743
Cyanyu 4742
umugezi 4742
usanya 4742
Keny@@ 4741
Pierrot 4741
y’ubut@@ 4741
Odinga 4740
Visitors 4740
bikagera 4740
buny@@ 4740
bambwira 4739
mana 4739
biteganijwe 4738
mwebwe 4738
amanuka 4737
Byongeye 4735
Ubumenyi 4735
byombi, 4735
ababw@@ 4734
b’igihugu 4734
irondo 4734
kwegereza 4734
n’intumwa 4734
uyemo. 4734
gucana 4733
haf@@ 4733
inyongera 4733
amateraniro 4732
kuhira 4732
nkokora 4732
twizeye 4732
akemuka 4731
igere 4731
ishimangira 4731
siganwa 4730
umuco, 4730
kaburimbo 4729
iranga 4728
yashyiriweho 4728
bafungiwe 4727
aguruk@@ 4726
n’ibi 4726
n’ishyaka 4726
cyang@@ 4724
yasezeye 4724
Ahmed 4723
abwirwa 4723
ugush@@ 4723
gutoranya 4722
injije 4722
itanu, 4722
ion, 4721
umugenzi 4721
erera. 4720
uteza 4720
y'umukino 4720
map@@ 4719
umusaruro, 4719
bafashwa 4718
bamuz@@ 4718
igikira 4718
64 4717
akuze 4717
Gashyantare, 4716
Imit@@ 4716
UR 4716
oboraga 4716
yateje 4716
indutse 4715
URI 4714
bareg@@ 4713
ira.” 4713
ririya 4713
asanz@@ 4712
ashimisha 4712
urukuta 4712
itorero. 4711
yababajwe 4711
BNR 4710
Sir@@ 4710
byanjye 4710
irimo. 4709
utab@@ 4709
Uwera 4707
impushya 4707
nyirabayazana 4707
n’ibihano 4707
ishinja 4706
isesengura 4705
ntid@@ 4705
ikinamico 4704
inyangamugayo 4704
mpimbano 4703
ongi 4703
turab@@ 4703
2/@@ 4702
sind@@ 4702
rishy@@ 4701
ard, 4700
andiko 4699
nkajya 4699
/01/2017 4698
enzwe 4698
ishyuza 4697
busesuye 4696
apfuye, 4695
kuzura 4695
Mutara 4694
guhumeka 4694
hot@@ 4694
yarigeze 4694
Did@@ 4693
S) 4693
yakoze, 4693
2001 4692
Na@@ 4691
bugufi, 4690
ens 4690
ibits@@ 4690
ishikar@@ 4690
urwandiko 4690
bagahitamo 4689
bitangaje 4689
gukingira 4689
hakurya 4689
nagize 4689
ubakw@@ 4688
Ndikumana 4687
agaritswe 4687
w'iyi 4687
wiruk@@ 4687
n’ih@@ 4686
FL@@ 4685
Live 4685
abavug@@ 4685
eshejwe 4684
ubucuruzi. 4684
BIR@@ 4683
CSR 4683
igitecyerezo 4683
ishuli 4683
n’Umunyamabanga 4683
utubari 4683
F. 4682
anyu, 4682
umugaba 4682
Maria 4681
ami, 4681
eker@@ 4681
ota, 4681
y’umuk@@ 4681
Ter@@ 4680
andagira 4680
59 4679
Yabaye 4679
itam@@ 4679
umwa, 4679
wemera 4679
IYO 4678
inararibonye 4678
butabera 4677
BAT@@ 4675
zombi. 4675
Polic@@ 4674
bisigaye 4674
byabag@@ 4674
indahemuka 4674
wariye 4674
Junior 4673
amahor@@ 4673
PSD 4672
atakaza 4671
byatumaga 4671
yirinze 4671
Tanzaniya, 4670
Ndayambaje 4669
amya, 4669
ifunga 4669
ugurwa 4669
akim@@ 4668
n’Imana. 4668
cy’Amahoro 4667
aryam@@ 4666
ikab@@ 4666
bazabona 4665
byatang@@ 4665
inginga 4665
RB@@ 4663
bayo. 4663
mav@@ 4663
guhuriza 4662
w'Umurenge 4661
zitemewe 4661
Davido 4660
Rad@@ 4660
batoye 4660
ni: 4660
uti, 4660
watang@@ 4660
Haz@@ 4659
Hen@@ 4658
ang 4658
bubiko 4657
Minnaert 4656
Rwanda: 4656
n'ikigo 4656
ufite. 4656
watowe 4655
Sylv@@ 4654
wim@@ 4654
yeyi 4653
Abaroma 4652
Umuhungu 4651
‟ 4650
Umukristo 4649
1-1@@ 4648
byamamare 4648
bw’iki 4647
Haram 4646
y’ukuri 4646
ANZI 4645
Dan@@ 4645
Yaba 4645
ntibit@@ 4645
oo 4645
ikuye 4643
urun@@ 4643
/02/17 4642
Ama 4642
Sing@@ 4642
kose. 4642
101 4641
Bukuru 4641
zihabwa 4641
akarere, 4639
cy’amashuri 4639
kutubahiriza 4639
wenyine. 4639
Rwose 4638
politik@@ 4637
1993 4636
guhaha 4636
Gabriel 4635
amagarwa 4635
Media 4634
gushira 4634
mata 4634
akajagari 4633
kumush@@ 4633
ngeri 4633
onger@@ 4633
‘M@@ 4633
Sat@@ 4632
abwaho 4631
itegamiye 4631
o] 4631
(Matayo 4630
?" 4630
Gaspard 4630
ashyingurwa 4630
Bimenyimana 4629
itani 4629
serukiramuco 4629
eramo. 4628
oul@@ 4628
Hitayezu 4627
Sk@@ 4627
Yashyizweho 4627
butandukanye. 4627
mabuye 4626
twam@@ 4626
n’ingamba 4625
Ush@@ 4624
kuba. 4624
uri. 4624
cyane.@@ 4623
hagize 4623
”—@@ 4623
69@@ 4622
:”@@ 4622
intare 4622
uvugwa 4622
wagaho 4622
wakoraga 4622
Sezibera 4621
kuburanisha 4621
anyu. 4620
kaminuza, 4620
kwitwararika 4620
makuru, 4620
ubwiraga 4620
ISI 4619
Eritrea 4618
w’Umujyi 4618
yumvikana 4617
Kayitesi 4616
n’abandi, 4616
yibwe 4616
Fa@@ 4615
ashyikirijwe 4615
ideli 4615
Dominic 4614
ihagije 4614
y’abo 4613
amijwe 4612
intyoza.com 4612
oss@@ 4612
ANZE 4611
amagi 4611
ambana 4611
yatug@@ 4611
Cont@@ 4610
KUKO 4610
Ki@@ 4610
Tottenham 4610
kagali 4610
Andika 4609
Djabel 4609
wh@@ 4609
ntibyari 4608
ryabereye 4608
Henry 4607
idashobora 4607
kureng@@ 4607
Sy@@ 4606
gisubizo 4606
muvuduko 4606
1998 4605
gushyikirizwa 4605
@Bwiza.com 4604
bitangira 4604
m) 4604
rwemeje 4604
wes@@ 4604
Musabyimana 4602
iriyemo 4602
yirukanye 4602
magambo, 4601
shami 4601
"M@@ 4600
guseny@@ 4600
Nyamagabe, 4599
akanga 4599
ema. 4599
aris@@ 4598
byonyine 4598
Fo@@ 4597
ezeho, 4597
bagaruka 4596
ikenewe 4596
vuga 4596
Nah@@ 4595
imimerere 4595
ishyari 4595
kwangirika 4594
y’Inteko 4594
Mot@@ 4593
iki?@@ 4593
yabash@@ 4593
OL@@ 4592
iriro 4592
Petit 4591
angiraga 4591
baramw@@ 4591
kwihutira 4591
uvuge 4591
w’Ubutegetsi 4591
iti, 4590
u! 4590
gutahura 4589
S. 4588
ery 4588
ibona, 4588
kibuga, 4588
ngenderwaho 4588
yaberaga 4588
y’ubufatanye 4588
ege, 4587
n’iri 4587
urikiza 4587
uzah@@ 4587
Mutuyimana 4586
bahind@@ 4586
ABANTU 4585
nabonaga 4585
Jeann@@ 4584
akurik@@ 4584
uhari 4584
bacu, 4583
fashije 4583
mushobora 4583
yajyanye 4583
Ngenga 4582
add@@ 4582
busaba 4582
itanu. 4582
……@@ 4582
z’ibihugu 4581
Inzira 4580
kumubona 4580
twaz@@ 4580
bw'akarere 4579
amake 4578
bananiwe 4578
moteri 4578
yatunguye 4578
Rusagara 4577
Sup@@ 4577
kwipimisha 4577
ry’uburezi 4577
P. 4576
agaragaje 4576
z'umwaka 4576
yitab@@ 4574
Taliki 4573
bisaga 4573
embwa 4573
miliy@@ 4573
byakomeje 4572
hhhh@@ 4572
k’ 4572
ugarijwe 4572
bubatse 4571
do@@ 4571
w’ab@@ 4571
abatutsi, 4570
ntibih@@ 4570
yambere, 4570
Insanganyamatsiko 4569
kiraro 4569
wirakwiza 4569
w’umugore 4569
É@@ 4569
88 4568
bitabaye 4568
bwatanzwe 4568
intambara. 4568
nk'umuntu 4568
4° 4567
KT 4567
bababwira 4566
usub@@ 4566
wajya 4566
w’Inama 4566
Ke@@ 4565
ah, 4565
bakandida 4565
kuribwa 4565
Je@@ 4564
off@@ 4564
bajije 4563
gukundwa 4563
site 4563
umwuka. 4563
yazize 4563
Filime 4561
ate, 4561
Amahoro, 4560
avuge 4560
bwihuse. 4560
intege, 4559
w'Igihugu 4559
Kompanyi 4558
Ukuboza, 4558
anyeho 4558
guts@@ 4558
rugira 4558
winjiye 4558
ana.” 4557
ikirwa 4557
Gatsibo, 4556
bashying@@ 4556
bifatanyije 4556
kwicungira 4556
yant@@ 4556
ENGA 4555
anyirijwe 4555
ingoro 4555
osor@@ 4555
Univers@@ 4554
bite? 4554
oboye, 4554
Rep@@ 4553
arum@@ 4553
kirekire. 4553
kuzimya 4553
kij@@ 4552
1: 4551
cyamaze 4550
irusha 4550
Za 4549
isoza 4549
kigo, 4549
n'abah@@ 4549
yiv@@ 4549
isezer@@ 4548
y’aba@@ 4548
Johnston 4547
uway@@ 4547
barang@@ 4545
Eva 4544
fatizo 4544
nubu 4543
nubundi 4543
A,@@ 4542
akagombye 4542
kurang@@ 4541
n’ibiro 4541
shi 4541
Muhoza 4540
imiturire 4540
kwiha 4540
AL 4539
Hit@@ 4539
Mazimpaka 4539
abanye@@ 4539
uwar@@ 4539
yarya 4539
bambara 4538
hakaz@@ 4537
n’imitwe 4537
anirwa. 4535
y'amezi 4535
Wil@@ 4534
bahembwa 4534
y’abaturage, 4534
ajyan@@ 4533
000, 4532
onka 4532
gushyikiriza 4531
olo 4531
NONE 4530
Nyundo 4530
byavugwaga 4530
erewe. 4530
ihura 4530
impyiko 4530
kwigishwa 4530
Mic@@ 4529
akwa 4529
gutegurwa 4529
Frank@@ 4528
zirenze 4527
EKA 4526
abikorwa 4526
ijyan@@ 4526
w'intebe 4526
wambere 4526
London 4525
ikinyabupfura 4525
rukom@@ 4525
23. 4524
ibagirana 4524
kwifashishwa 4524
R. 4523
imbano 4523
bito 4522
ishying@@ 4522
nkongi 4522
obanuk@@ 4522
ungabany@@ 4522
Covid-19, 4521
abona. 4521
akirwa 4521
Nama 4520
abanziriza 4520
abatutsi. 4520
kwiyongera. 4520
guhimba 4519
vuba@@ 4519
yatumiwe 4519
ABY@@ 4518
aragaramo 4518
iratangaza 4518
Addis 4516
odo 4516
ubatsi 4516
afunga 4515
imyirondoro 4515
kuyik@@ 4515
miterere 4515
yatangaga 4515
Aurore 4514
Ukwakira, 4513
ael 4513
dukorera 4513
busa. 4512
w'umurenge 4512
(2 4510
gip@@ 4509
kwishora 4509
snippet="google-pub"] 4509
16:@@ 4508
ena, 4508
ruhu 4508
umumotari 4508
uzwiho 4508
ea@@ 4507
uzahuza 4507
Iperereza 4506
ego. 4506
FM 4505
b’abanyarwanda 4504
itatu. 4504
ukagira 4504
agije. 4503
Umusaza 4502
Yunzemo 4502
erahamwe 4502
ufate 4502
wishe 4502
y’inama 4502
n’ikindi 4501
yakoreshaga 4501
y’iminota 4501
Marina 4499
Mill@@ 4499
ic, 4499
ikibuno 4498
kubasha 4498
Fashion 4497
Muntu 4497
wezi 4497
Nyamasheke, 4496
emera. 4496
rap@@ 4496
Irinde 4495
bahangayikishijwe 4495
b’uyu 4495
ibyaza 4495
ishyur@@ 4495
bwagiye 4494
ishwa. 4494
0-@@ 4492
Sil@@ 4492
ack 4492
yirinda 4492
n‘@@ 4491
ors 4491
urush@@ 4491
Perezid@@ 4490
yamo 4490
afunguwe 4489
icyizere. 4489
kibanza 4489
00, 4488
8-@@ 4488
akabari 4488
bamush@@ 4488
buso 4488
n'ibigo 4488
nday@@ 4488
ubiye 4488
wamo, 4488
ngingo, 4487
uRwanda 4487
Eg@@ 4486
Biravugwa 4485
Georg@@ 4485
ryose. 4485
Impuguke 4484
enye, 4484
58@@ 4483
90% 4483
arifuza 4483
bashinja 4483
Kikwete 4482
yanjye@@ 4482
zahawe 4482
gace, 4481
Boniface 4480
WO 4480
aine 4480
atiwe 4480
br@@ 4480
impfu 4479
ANE 4478
yeguk@@ 4478
(6@@ 4477
Diana 4477
Life 4477
be@@ 4477
iraneza 4476
twih@@ 4476
yabayeho 4476
abacuruza 4474
urikije 4474
Solange 4473
abakund@@ 4472
ations 4471
gusabana 4471
igikundiro 4471
Ati” 4468
kubaho, 4468
Ati:@@ 4467
abasabye 4467
iramo, 4467
ON 4466
bitaro. 4466
urage, 4466
abanyafurika 4465
indege, 4464
22. 4463
i] 4463
zakunzwe 4463
ishur@@ 4462
andi, 4461
Burundi: 4460
ivugururwa 4460
zamamaza 4460
erukaga 4459
gitangira 4459
twiy@@ 4459
y’is@@ 4459
imwa 4458
ikihe 4457
cyacu, 4456
Budage, 4455
Burera, 4455
ashoboka. 4455
ay'@@ 4455
nimwe 4455
sibyo 4455
Inyigisho 4454
m’@@ 4454
oto@@ 4454
wize 4454
imbyino 4453
ishyikiriza 4453
ororwa 4453
utundi 4453
Jerome 4452
Rwego 4452
anitse 4452
bibangamiye 4452
Bwa 4451
RBC 4451
bafatanyabikorwa 4451
ereje, 4451
mam@@ 4451
n'abanyarwanda 4451
th 4450
iza.@@ 4449
oshi 4449
Abanye@@ 4448
Ibirori 4448
amaye 4448
Kwita 4447
Mark 4447
burund@@ 4447
le, 4447
J.@@ 4446
State 4446
amashy@@ 4446
PSG 4445
akuru, 4445
bidashoboka 4445
doreko 4445
omu 4445
Ly@@ 4444
n'umutekano 4444
Abami 4443
acyo, 4443
by�@@ 4443
umuhate 4443
yizera 4443
agashaka 4442
ibihangange 4442
lo 4442
yahereye 4442
Kum@@ 4441
agaruk@@ 4441
amby@@ 4441
77 4439
cy 4439
Irene 4438
Rev.@@ 4438
urya 4438
Kiny@@ 4437
bagere 4437
ikamyo 4437
isse 4437
itangarije 4437
n’ibind@@ 4437
Cameroon 4436
Twe 4436
RWAND@@ 4435
ebw@@ 4435
imyambarire 4435
urikirwa 4435
y’abakozi 4435
buhanuzi 4434
width="@@ 4434
bugenda 4433
kwihang@@ 4433
asanzwe, 4432
batam@@ 4432
y’abag@@ 4432
MUNY@@ 4431
akiy@@ 4431
Bik@@ 4430
disikuru 4430
Ann@@ 4429
ose. 4428
Assistant 4427
Inka 4427
inyaga 4427
abagizi 4425
agaragaye 4425
iz 4425
61 4424
Bible 4424
Ka@@ 4424
kikaz@@ 4424
ret@@ 4424
yamye 4424
hac@@ 4423
y’uburezi 4423
apu 4422
OSE 4421
SRC: 4421
u." 4421
Sawuli 4420
babaho 4420
kwamamara 4420
KA 4419
akomereka 4419
era,@@ 4419
mategeko, 4418
Agat@@ 4417
Umuc@@ 4417
impanuka. 4417
n’inshingano 4417
bashoboraga 4416
by’uko 4416
guhanahana 4416
2). 4415
abamb@@ 4414
haracyari 4414
irane 4414
yasabaga 4414
zanyu 4414
és@@ 4414
@MuhaburaNews 4413
@muhabura 4413
Comments: 4413
68 4412
ew 4412
icyah@@ 4412
st 4412
abifuza 4411
bakah@@ 4411
ijwemo 4411
FDLR. 4410
Lk 4410
CO 4409
Mutoni 4409
Sab@@ 4409
asirazuba, 4409
wakiniraga 4409
ott@@ 4408
uvuka 4408
SIDA, 4407
irikare, 4407
300@@ 4406
P, 4406
dat@@ 4406
ongana 4405
bibiri. 4404
wel@@ 4404
/04/201@@ 4403
intege. 4402
iyongere 4402
Adrien 4401
Van 4401
dukorana 4401
rwatangaje 4401
(W@@ 4400
bahar@@ 4400
bazana 4400
Njye: 4399
IMAN@@ 4398
bakiy@@ 4398
hazabaho 4398
y'ubur@@ 4398
abwiwe 4397
bukurikira: 4397
maso. 4397
mbumbe 4397
nabo. 4397
yl@@ 4397
arusha 4396
ushoboye 4396
utsinze 4396
biherereye 4395
cyihariye 4395
umbi. 4395
agere 4394
ibamo 4394
ise. 4394
angi 4393
atandukanye. 4393
kuvuza 4392
adakwiye 4391
bamushinja 4391
oherejwe 4391
tubonye 4389
gusatira 4388
Hamisa 4387
batabar@@ 4387
bw’ikoranabuhanga 4387
izer@@ 4387
kigenda 4387
kumutera 4387
yubak@@ 4387
zihariye 4387
Kicukiro. 4386
gifasha 4386
abanuka. 4385
birushaho 4385
kumbwira 4385
ei 4384
kwish@@ 4384
n'abakinnyi 4384
baryam@@ 4383
umuzungu 4383
(RIB) 4382
,000. 4382
Sah@@ 4382
arangiye 4382
bakabasha 4382
gushak@@ 4382
IN 4381
Nyamirambo, 4381
ibidukikije, 4380
n’umwanya 4380
=@@ 4379
ona, 4379
Bizimungu 4378
Ugomba 4378
aranga 4378
witwaye 4378
Byose 4376
Gar@@ 4376
i… 4376
j 4375
ukundi. 4375
umunyamategeko 4375
34@@ 4374
Jenosid@@ 4373
makoperative 4373
ajemo 4372
gitera 4372
ibuza 4372
indur@@ 4372
KUWA 4371
abona, 4371
engeye 4371
n’ubwenge 4371
ubita 4371
amarembo 4370
itukura 4370
ungahaye 4370
ziza 4370
Ibiganiro 4369
aguma 4369
gucura 4369
kwishyuza 4369
wis@@ 4369
ANI 4368
unywa 4368
arirwo 4367
ki? 4367
menye 4367
bwerekanye 4366
Bet@@ 4364
Ubutabera 4364
amasegonda 4364
igezweho 4364
ikinyabiziga 4364
urukozasoni 4364
munyeshuri 4363
Zidane 4362
angariza 4361
iye? 4361
n’isi 4361
iliya 4360
Isiraheli 4359
Virusi 4359
bagizwe 4359
itwar@@ 4359
Kongo. 4358
Rush@@ 4358
Esther 4357
atorwa 4357
azahabwa 4357
bagafata 4357
gaherereye 4357
w’ububanyi 4357
abayo 4356
eruye 4355
riyobowe 4355
70% 4354
Bugesera. 4354
zemewe 4354
Moise 4353
Handball 4352
atinze 4352
abirwa 4351
KURI 4350
ikanzu 4350
izamu. 4350
rw’abantu 4350
bahanga 4349
itandukanye. 4349
ndwara. 4349
3: 4348
imideri 4348
inyenyeri 4348
igihingwa 4347
wacu. 4347
izo, 4346
Skol 4345
Twizeyimana 4344
abanyamerika 4344
ibyo. 4344
yakongera 4344
amaranye 4343
igihangange 4342
jenoside. 4341
n’umubyeyi 4341
waro 4341
zigaragara 4341
Girinka 4340
akemera 4340
kare, 4340
Ahabanza 4339
babikoze 4339
/16 4338
imukanwa 4338
n’uruhare 4338
omeje 4338
Imiyoborere 4337
Ububiligi 4337
basenga 4337
umugor@@ 4337
yaranditse 4337
Khal@@ 4336
atandukanye, 4336
h00@@ 4336
yamp@@ 4336
n’akazi 4335
ukuramo 4335
(p@@ 4334
Miss@@ 4334
bariye 4334
gishingiye 4334
Tun@@ 4333
avuga. 4333
bamub@@ 4333
uha, 4333
yaburiye 4333
(RD@@ 4332
asa, 4331
di 4331
kwibagirwa 4331
onga, 4330
emukiye 4329
gash@@ 4329
mpanabyaha 4329
KU@@ 4328
RUG@@ 4327
irat@@ 4326
ubwikorezi 4326
Bashir 4325
Pasteur 4325
n'ubutegetsi 4325
ukuze 4325
igir@@ 4324
Bongo 4323
bazab@@ 4323
by’abantu 4323
mbaga 4323
agateg@@ 4322
gupfobya 4322
bifuzaga 4321
obanuro 4321
umugab@@ 4321
wabanje 4321
IRWA 4320
ifi 4320
tukab@@ 4320
ONA 4319
engeri 4319
yumvikanye 4319
Babuloni 4318
Umubano 4318
birindwi 4318
w'uyu 4318
bahabwe 4317
bimug@@ 4317
iliy@@ 4317
yakunzwe 4317
Kambanda 4316
inter@@ 4316
uba. 4316
Liv@@ 4315
by’igihugu 4315
gukomereza 4315
birindiro 4314
gusambana 4314
ibere 4314
kane. 4313
n’umwaka 4313
rw‟@@ 4313
Wh@@ 4312
Nseng@@ 4311
kwitandukanya 4310
ubusobanuro 4310
gikristo 4309
n’Urukiko 4309
uel 4309
wa! 4309
yatsinzemo 4309
avukira 4307
bashyirwa 4307
byig@@ 4307
muby@@ 4307
uce 4307
Alfred 4306
Kagabo 4306
Niyom@@ 4306
gasozi 4306
kwiyumvisha 4306
n’abad@@ 4305
Michelle 4304
bizabafasha 4304
BIK@@ 4303
NKUSI 4302
abasigaye 4301
andukan@@ 4301
bunyuranye 4301
bakenera 4300
buryo. 4300
com, 4300
ega, 4300
igurisha 4300
ryisumbuye 4300
twamaze 4300
Yoh@@ 4299
izihizwa 4299
kuyit@@ 4299
ababera 4298
banza 4298
ubwabyo 4298
usiya 4298
fl@@ 4297
omo. 4297
bwonko 4296
inzibacyuho 4296
manini 4296
kwandikira 4295
mwenda 4294
are. 4293
genocide 4293
wubatse 4293
Facebook, 4292
bihaye 4292
h, 4292
yajyanywe 4292
Tekereza 4291
ababana 4291
ukamenya 4291
byay@@ 4290
ibwiye 4290
n’ubug@@ 4290
n'Abanyarwanda 4289
sim@@ 4289
ty@@ 4288
Studio 4287
mukora 4286
Nicolas 4285
enya. 4284
bihangano 4283
kunenga 4283
nirwo 4283
ufitanye 4283
“ni 4282
Ibis@@ 4281
bavuka 4281
kuyoborwa 4281
mo@@ 4281
rukwiye 4281
yagejejwe 4281
agena 4280
abwenge 4279
bw’abana 4279
by’Afurika 4279
abanze 4278
buruse 4278
!!!! 4277
Argentine 4277
bihabwa 4277
ikunzwe 4277
abigarag@@ 4276
avaho 4276
hakunze 4276
kumwereka 4276
nticy@@ 4276
n’uwitwa 4275
fur@@ 4274
akamaro, 4273
irimbo 4273
ozaga 4273
Hillary 4272
ikirana 4272
n’umuvugizi 4272
71 4271
KUG@@ 4271
RUS@@ 4271
bakuye 4271
erin@@ 4271
uteganyijwe 4271
Muyoboke 4270
bashingiye 4270
atazongera 4269
idak@@ 4269
Nitwa 4268
bujuje 4268
buza 4268
ubusugire 4268
abasifuzi 4267
itir@@ 4267
yatah@@ 4267
yiraho 4264
ababwiye 4262
egurira 4262
tumw@@ 4262
twakora 4262
yakub@@ 4262
Kurwanya 4261
intw@@ 4261
mufuka 4261
y’ubuyobozi 4261
anam@@ 4260
Ghana, 4259
itsindwa 4259
aliyani 4258
bujura 4258
bujyanye 4258
wacu@@ 4258
FAR@@ 4257
anzeho 4257
dutanga 4257
barangwa 4256
ute? 4256
int 4255
izar@@ 4255
b’Abanyarwanda 4254
ifashije 4254
n’Inama 4254
ç@@ 4254
Busuwisi 4253
Sol 4253
ène 4253
ekamo 4252
obotse 4252
Abarimu 4251
Vita 4251
ikagira 4251
rwaba 4251
Ibur@@ 4250
b'Imana 4250
kubivuga 4250
kwibanda 4250
mibiri 4250
yaranzwe 4250
agapfukamunwa 4249
ushyikiriza 4248
kugaragariza 4247
kumwe, 4247
100. 4246
Maur@@ 4246
ohotewe 4246
abanyamadini 4245
abarangije 4245
bakomeretse 4245
gahunda, 4245
Prot@@ 4244
abayemo 4244
bamuhaye 4244
irinde 4244
urubyiruko. 4244
yego 4244
bishatse 4243
ubucamanza 4243
up 4243
ugunya 4242
umugoroba 4242
y'Amajyaruguru 4242
bake. 4240
n’imiterere 4240
Tony 4239
· 4239
atange 4238
ibazo 4238
innyi 4238
gucibwa 4237
uburangare 4237
Twabibutsa 4236
enzaho 4236
Kirehe, 4235
b'abakobwa 4235
ehe, 4235
arurira 4234
imperuka 4234
kont@@ 4234
urwenya 4234
Cap@@ 4233
itond@@ 4233
GUT@@ 4232
berekana 4232
biciro 4232
hateg@@ 4232
inziriye 4232
iti@@ 4232
watangije 4231
1/201@@ 4230
73 4230
kimeze 4230
Abasenateri 4229
acyaha 4229
gahunda. 4229
inyanja 4229
umuntu@@ 4229
rihuza 4228
bakorewe 4227
uhite 4227
yanyuze 4227
wamuh@@ 4226
bw’ikipe 4225
okoka 4225
Yasoje 4224
asengera 4224
azitabira 4224
yarwanda, 4224
78 4223
Seninga 4223
ne@@ 4223
n’abav@@ 4223
Gol@@ 4222
LinkedIn 4222
utu. 4222
Imitwe 4221
uwakoze 4221
ikozwe 4220
mituweli 4220
basangiye 4219
yamba. 4219
resitora 4218
embo. 4217
waryo 4217
aramusubiza 4216
twibuka 4216
yeng@@ 4216
met@@ 4215
Abashinwa 4213
abashobora 4213
bizakomeza 4213
yatandukanye 4213
Rum@@ 4212
UKW@@ 4212
ererwe 4212
kurebwa 4212
yongere 4212
Rwanda.” 4211
agombye 4210
FERWAFA, 4209
twita 4209
usoma 4209
u”. 4209
anyije. 4208
y’amasaha 4208
Brig. 4207
bakundaga 4207
“Ariko 4207
Mos@@ 4205
abatanga 4205
bishyira 4205
Kinshasa, 4204
kwishakamo 4204
w’umunyarwanda 4204
Bamaze 4202
Hop@@ 4202
Faso 4201
Niyitegeka 4201
Qatar 4201
inkom@@ 4201
iye.@@ 4201
□ 4201
rwak@@ 4200
yivuye 4200
impan@@ 4199
wanjye. 4199
Dushobora 4198
Niyomugabo 4198
kwifuza 4198
ry’Imana. 4198
waneza 4198
ishobo@@ 4197
Ndoli 4196
bakoreshaga 4196
Virus 4195
gutesha 4195
amasambu 4194
kwikura 4194
wagombye 4194
erere@@ 4193
kwifata 4193
minist@@ 4193
gutembera 4192
bayoboke 4191
eye.” 4191
Akagera 4190
Ugushyingo, 4190
wambara 4190
ahandi, 4189
ntiyem@@ 4189
y'abana 4189
GS 4188
anta 4188
ryaje 4188
yarahawe 4188
Buravan 4187
amagarama 4187
85 4186
bakabura 4186
yabik@@ 4186
Bol@@ 4185
Mr 4185
Ntib@@ 4185
mavuta 4185
uhind@@ 4185
Aim@@ 4184
Kn@@ 4184
afa 4184
n’aband@@ 4184
uvugwaho 4184
Moto 4183
Stephen 4183
éc@@ 4182
.000) 4181
buhoraho 4181
harebwa 4181
wose, 4181
Amasomo 4180
Kabar@@ 4180
akitwa 4180
amabati 4180
kubash@@ 4180
yakomeza 4180
"Tur@@ 4179
Nyiram@@ 4179
mic@@ 4179
Habumuremyi 4178
Mukamana 4178
ambanyi 4178
uzume 4178
Views: 4177
ifur@@ 4177
ujyan@@ 4177
Ibaruwa 4176
Ukwezi 4176
imirimo. 4176
gufungurwa 4175
ibibanza 4175
ananiwe 4174
igo. 4174
oroha 4174
Tour@@ 4173
munzu 4173
ad, 4172
iruh@@ 4172
You 4171
nayo. 4170
Buriya 4169
impamvu. 4169
ishye 4169
kubishyira 4169
iza,@@ 4168
n’uburenganzira 4168
kenshi. 4167
mubo 4167
y’umuriro 4167
enyeye 4166
gusubiramo 4166
agafata 4165
uzongera 4164
yahan@@ 4164
RIB, 4163
busabe 4163
bwuzuye 4163
arub@@ 4162
ukureba 4162
y’inzego 4162
ESH@@ 4161
angirije 4161
babyar@@ 4161
yadus@@ 4161
yahoraga 4161
ababwiriza 4160
anyije, 4160
kwitondera 4159
uvuz@@ 4159
abaye@@ 4158
amusabye 4158
avana 4158
PR 4157
urwaho 4157
Gasabo. 4156
n’umukinnyi 4156
ubam@@ 4156
ziny@@ 4156
bw’umwana 4155
y’Imana. 4155
K. 4154
Umup@@ 4154
ateze 4154
bigari 4154
abahanuzi 4153
integ@@ 4153
umushoramari 4153
Rudahigwa 4152
bihuje 4152
kumusaba 4152
ubwinshi 4152
atakw@@ 4151
ABAH@@ 4150
irasaba 4150
itorero, 4150
kugirirwa 4150
cyerekana 4149
itabwaho 4149
yasimbuye 4149
bigabanya 4148
bikar@@ 4148
igishijwe 4148
ihindura 4147
w’ubuzima 4147
Abdul@@ 4146
IGITEKEREZO 4146
MRND 4146
Rutaremara 4146
abiri, 4146
Prezida 4145
Umupira 4145
ashakishwa 4145
lo@@ 4145
ribanza 4145
Uhereye 4144
ilo 4144
rwanjye 4144
wemeye 4144
EZE 4143
Niyonsenga 4143
twir@@ 4143
yako 4143
basamb@@ 4142
bayo, 4142
hati 4142
ihakana 4142
omwe 4142
bakurikira 4141
eshi 4141
ikiremwamuntu 4141
inani 4141
ntakibazo 4140
s). 4140
ubwenge, 4140
ère 4140
Protais 4139
ori, 4139
Kanimba 4138
ibaha 4138
ikinira 4138
ugas@@ 4138
akaboko 4137
erekeranye 4137
kamaro 4137
kosa 4137
YEZU 4136
amavuriro 4136
40, 4135
Jacob 4135
Kabag@@ 4135
Leonard 4135
iane 4135
ubushize 4135
Div@@ 4134
engerazuba. 4134
itangazwa 4134
Meddie 4133
abera, 4133
abuza 4133
akanyamuneza 4133
bukora 4133
Kayonza, 4132
Kelly 4132
abus@@ 4132
ibafasha 4132
intangiriro 4132
n'itangazamakuru 4132
reg@@ 4132
zayo. 4132
Abashakashatsi 4131
Cycling 4131
atagomba 4131
umbuwe 4131
Dir@@ 4130
igishoro 4130
kuns@@ 4130
Mpanabyaha 4129
Sekamana 4129
bahunga 4129
Barcelone 4128
Ministre 4128
byafasha 4128
ibyokurya 4128
uburyohe 4128
2007, 4127
Uruk@@ 4127
ifar@@ 4127
intu 4127
umbuzi 4127
/12/2016 4126
ekeje 4126
nonese 4126
AM 4125
Uburenganzira 4125
araz@@ 4125
Reuters 4124
erekez@@ 4124
irak@@ 4124
n’Urwego 4124
amvu 4123
gereza. 4123
BB@@ 4122
ugur@@ 4122
igan@@ 4120
riharanira 4119
akamar@@ 4118
icyaro 4118
uramo. 4118
André 4117
Karuranga 4117
aph@@ 4117
wemye 4117
18:@@ 4116
azahita 4116
to@@ 4116
"Nta 4115
10-@@ 4115
Rusizi: 4115
anar@@ 4115
ariye. 4115
tukay@@ 4115
tuvug@@ 4115
yez@@ 4115
Business 4114
haravugwa 4114
y’iterambere 4114
1995 4113
Kitoko 4113
byumvikana 4113
Kaj@@ 4112
engere 4112
bifashisha 4110
rushanwa, 4110
Mukantabana 4109
Urugendo 4109
byakorewe 4109
imbo 4109
ongeyeho 4109
Prosper 4108
bazaga 4108
wabashije 4108
Museveni, 4107
bishyize 4107
ien, 4107
zikoresha 4107
Angel@@ 4106
atangarije 4106
emerwa 4106
w’Int@@ 4106
iteka. 4105
n'amategeko. 4105
enya, 4104
Ruz@@ 4103
abonek@@ 4103
Mbony@@ 4102
Yasuwe: 4102
gatolika 4102
kwitanga 4102
polisi. 4102
yunganira 4102
Icyaha 4101
afunguye 4101
yoherejwe 4101
67 4100
ambi, 4100
hatanzwe 4100
y’umuh@@ 4100
Rud@@ 4099
mugit@@ 4099
oraho, 4099
ibidukikije. 4098
abafashe 4097
nk’umukinnyi 4097
ungutse 4097
b’ibigo 4096
uha. 4096
17:@@ 4095
Asinah 4095
ankunda 4095
bukom@@ 4095
uzumwe 4095
atatu, 4094
bwiraga 4094
rw’Ubugenzacyaha 4094
Kwinjira 4093
wagaragaje 4093
Imv@@ 4091
RUB@@ 4091
cel@@ 4091
yazaga 4091
Nigeria. 4090
w'Intara 4090
Save 4089
ifunze 4089
z’abaturage 4089
HC@@ 4088
Muhadjiri 4088
ahamwa 4088
irangamimerere 4088
umurindi 4088
yagaragazaga 4088
IGIHE: 4087
abayis@@ 4087
bashimira 4087
cyakora 4087
ibitambo 4087
mugiye 4087
oram@@ 4087
ents 4086
ilikare 4086
kubabarira 4086
yoherwa 4086
Asaba 4085
hagati, 4085
aboneka. 4084
ection 4084
kabuhariwe 4084
oroba 4084
Mpayimana 4083
ninde 4083
ANYA 4082
Abashinzwe 4082
Amajyepfo 4082
babikor@@ 4082
ikiremwa 4082
alias 4081
ambu 4081
itura 4081
Munyan@@ 4080
umunwa 4080
waw@@ 4080
0-0 4079
kubwir@@ 4079
Fel@@ 4078
w’amashanyarazi 4078
KIGALI 4077
Mwana 4077
Sul@@ 4077
Ufite 4077
RFI 4076
aragu 4076
utavuga 4076
HAR@@ 4075
Samweli 4075
ibiganza 4075
bahinga 4074
“Ku 4074
bakurikije 4073
oroshye, 4073
yahita 4073
ias 4071
yinjije 4071
2000, 4070
biragaragara 4070
uzar@@ 4070
:0@@ 4069
DASSO 4069
wanga 4069
w’Umurinzi 4069
bibangamira 4068
land@@ 4068
mand@@ 4068
Byaba 4067
Milan 4067
Mutarama, 4067
aragara, 4067
icupa 4067
yakagombye 4067
uzamo 4066
akinwa 4064
kubaz@@ 4064
Kora 4063
PL 4063
iru 4063
rw’uyu 4062
Damien 4061
RUK@@ 4061
abafashije 4061
irikare. 4061
ette, 4060
Nzeri, 4059
aguha 4059
Yavuzweho 4058
e!” 4058
ibyatangajwe 4058
mashuri, 4058
rinini 4058
Women 4057
abasubiza 4057
bihingwa 4057
umukara 4057
igendanwa 4056
IS 4055
Ram@@ 4055
n'Umuyobozi 4055
obewe 4055
Musanze: 4054
Sandrine 4054
Yasobanuye 4054
Il@@ 4053
Urw@@ 4053
angamirwa 4053
enegihugu 4053
imu. 4053
Amad@@ 4052
abizi. 4052
´@@ 4052
RuhagoYacu 4051
ubashye 4051
uzuye, 4051
bandika 4050
yarang@@ 4050
Ric@@ 4049
aciwe 4049
amatafari 4049
gikomeye. 4049
APR@@ 4048
Bubiligi. 4048
bitaro, 4048
inoti 4048
myambaro 4048
Boy@@ 4047
ENZI 4047
Mai 4047
eretsa 4047
y’Amatora 4047
"Ntabwo 4046
Munezero 4046
ubwiyongere 4046
anjirije 4045
babaha 4045
ugeza 4045
yagend@@ 4045
bitangaz@@ 4044
cyahawe 4044
nk’iyi 4044
Diyoseze 4043
kwivuza. 4043
n'abari 4043
KNC 4042
Platini 4042
abanyamur@@ 4042
atsi, 4042
amuka. 4041
ango. 4041
b' 4041
erewe, 4041
nk’abantu 4041
agurisha 4040
ense 4040
indu 4040
orozi, 4040
yera 4040
Arthur 4037
impumuro 4037
rwitwa 4037
uzanira 4037
wa” 4037
3000 4036
kuzitabira 4034
onera 4034
Juli@@ 4033
ifa 4033
wica 4033
ahir@@ 4032
akabura 4032
amahang@@ 4032
ed, 4032
inzu, 4032
uriro, 4032
Esperance 4030
Paul, 4030
ingirwaho 4030
abere 4029
barakomereka 4029
uwah@@ 4029
Ivanjiri 4028
Ns./Bwiza.com 4028
akira. 4028
us. 4028
bw'Akarere 4027
i/@@ 4027
ship 4027
Niko 4026
abiga 4026
by’i 4026
eshyera 4026
icyar@@ 4026
icyunamo 4026
ihema 4026
Perezida. 4025
ashaje 4025
n’umwuka 4025
Ephrem 4024
zikunze 4024
port@@ 4023
Ubud@@ 4022
ial@@ 4022
love 4022
Majyepfo 4021
ist 4021
kuvurwa 4021
umugabo. 4021
abateye 4020
OP@@ 4019
RS@@ 4019
igikoni 4019
n’ibig@@ 4019
ruzi 4019
Félix 4018
amany@@ 4018
bakaganira 4018
naramuka 4018
bizam@@ 4017
busanzwe. 4017
hav@@ 4017
z'igihugu 4017
Amb@@ 4016
Bosenibamwe 4016
Muhanga. 4016
micungire 4016
z�@@ 4015
Maz@@ 4014
Ubuhamya 4014
ashyikiriza 4014
kijyambere 4014
zombi, 4014
indahiro 4013
rwashyiriweho 4013
byuzuye 4012
dukundana 4012
ugi 4012
gufash@@ 4011
matungo 4011
biyemeza 4010
ekanye 4010
Go@@ 4009
mbi. 4009
omp@@ 4009
Africans 4008
Eric, 4008
GUS@@ 4008
HAB@@ 4008
agit@@ 4008
abanz@@ 4007
igarana 4007
waraga 4007
embe, 4006
isubiza 4006
kwivanga 4006
y’umur@@ 4005
zandurira 4005
ashakanye 4004
cyanditse 4004
maradiyo 4004
okoye 4004
ushatse 4004
abategura 4003
simusiga 4003
TANGA 4002
injiriza 4002
ishikaje 4002
ntandaro 4002
(V@@ 4001
ADF 4001
EL 4001
1997 4000
igisigaye 4000
irenze 4000
ry’Imana, 4000
urangiye 4000
EU 3999
rwabaye 3999
60% 3998
Umusingi 3998
abal@@ 3998
Rwasa 3997
gahato 3997
kizatangira 3997
kubav@@ 3997
Abanyarwand@@ 3996
The@@ 3996
abizi, 3996
ry'u 3996
zigeze 3996
EJ@@ 3995
Award@@ 3994
agaze. 3994
n’Igenamigambi 3994
rw' 3994
gukoresh@@ 3993
one. 3993
amabaruwa 3992
n’ut@@ 3992
yumve 3992
y’ingenzi 3992
Akar@@ 3991
by’umubiri 3991
B) 3990
bakava 3990
igihango 3990
nk�@@ 3989
Modeste 3988
a’@@ 3988
ingiraho 3988
ubukurwa 3988
BIT@@ 3987
utegereje 3987
imari, 3985
agendeye 3984
bajyana 3984
gusuzumwa 3984
Umunyarwand@@ 3983
bwumvikane 3983
imirasire.com 3983
AMO 3982
n’ubutumwa 3982
ashimishijwe 3981
hash@@ 3981
Bebe 3980
buto 3980
%) 3979
Serivisi 3979
AMAG@@ 3978
bibiliya 3978
ern 3978
gitsina, 3978
urukaga 3978
wenyine, 3978
(l@@ 3976
Amahoro. 3976
izuba. 3976
Amak@@ 3975
Perezidansi 3975
icyarimwe 3975
oherereje 3975
umwaka. 3975
MUN@@ 3974
ihinga 3974
tubar@@ 3974
usoza 3974
ome, 3973
ahaguruk@@ 3971
e…@@ 3971
ibahe 3971
“Niba 3971
abanyarwand@@ 3970
et, 3970
"Nt@@ 3968
SIDA. 3968
Syria 3968
aragayemo 3968
n’abatoza 3968
baragiye 3967
y’umutungo 3967
Ba@@ 3966
Mukam@@ 3966
Nyamirambo. 3966
Diaspora 3965
S, 3965
kwandikisha 3965
anyurwa 3964
byago 3964
nu 3964
,mu 3963
mikoranire 3963
yaga 3963
y’Inama 3963
y’Ubut@@ 3963
ubushobozi, 3962
yubaka 3962
Butare, 3961
INK@@ 3961
angisha 3960
asimb@@ 3960
ast 3960
avugira 3960
Ngamije 3959
wavukiye 3959
Diarra 3957
Slide 3957
ibyinshi 3957
Ururimi 3956
gerageza 3956
amakara 3955
n’abakuru 3955
Dogg 3954
amam@@ 3954
buzwi 3954
i?” 3954
nuwo 3954
n° 3954
15/@@ 3953
bakagenda 3953
yashyikirije 3953
Academ@@ 3952
yoherezwa 3952
Documents 3951
agus@@ 3951
ibinure 3951
uruhererekane 3951
ET 3950
kuvoma 3950
wikira 3950
Bayisenge 3949
nshya. 3949
wakom@@ 3949
Fat@@ 3948
inyoni 3948
kacu 3948
akava 3947
ungurana 3947
Byanditswe 3946
Cel@@ 3946
gukiran@@ 3946
myinshi, 3946
wavuga 3946
asobanukirwa 3945
tubig@@ 3945
utam@@ 3945
y’ishuri 3945
afar@@ 3944
Send@@ 3943
n’aya 3943
Nyirasafari 3942
amwereka 3942
bwacu. 3942
ikip@@ 3942
anire, 3941
ben@@ 3941
ishingizi 3941
mizi 3941
aryamye 3940
kugabanuka 3940
station 3940
Atletico 3939
BA 3939
MONUSCO 3939
bidatinze 3939
IBUKA 3938
Igisubizo 3938
Imvura 3938
babeshya 3938
kuduk@@ 3938
uhesha 3938
ufunga 3937
zikurikira: 3937
D. 3936
ivura 3936
y’urukiko 3936
akamubwira 3935
isumb@@ 3935
kaminuza. 3935
kurushaho, 3935
byiyongera 3934
ishyanga 3934
ake, 3932
kukubwira 3932
rukomeje 3932
urugi 3932
AZE 3931
abivuga, 3931
emera, 3931
iyubahirizwa 3931
gusukura 3930
ibibuga 3930
inyungu. 3930
urushaho 3930
Worship 3929
abibona 3929
ansaba 3929
anywa, 3929
bakinira 3929
e”, 3929
kuburanishwa 3929
sivile 3929
(20@@ 3928
afot@@ 3928
akato 3928
ataram@@ 3928
umuterankunga 3928
Camp@@ 3927
by’iterambere 3927
rwandiko 3927
Harmonize 3926
berekeje 3926
engurutse 3926
meze 3926
ngend@@ 3926
High 3925
bihuza 3925
She@@ 3924
akanye. 3924
kwacu 3924
FRW 3922
bwinshi. 3922
ell 3922
gusamb@@ 3922
ruy@@ 3922
yakoresh@@ 3922
Sud@@ 3921
Yashimiye 3921
atunga 3921
gutekerez@@ 3921
isa, 3921
Ibanze 3920
Sport@@ 3920
nsaba 3920
Waba 3919
aba-@@ 3919
inyujije 3919
irize 3919
nteg@@ 3919
ikoreramo 3918
ongereza, 3917
trans@@ 3917
yasezer@@ 3917
Abayisilamu 3916
KWIZERA 3916
byagarutsweho 3916
imbata 3914
oraho. 3914
we) 3914
110 3913
Zimbabwe, 3913
agapf@@ 3913
amaseti 3913
inkur@@ 3913
zirwanira 3913
emewe. 3912
fo@@ 3912
ishwaga 3912
n'in@@ 3912
ashingira 3911
ishura 3911
kav@@ 3911
kungurana 3911
muremure 3911
Gabiro 3910
ayemo 3910
ohor@@ 3910
ubana 3910
byifashishwa 3909
imiz@@ 3909
ufite, 3909
w’Ubur@@ 3909
ANT@@ 3908
y’Imari 3908
Lambert 3907
zitagira 3907
CNN 3906
Muzika 3906
Sarpong 3906
nagira 3906
“S@@ 3906
Mwami 3905
omana 3905
watorewe 3905
isig@@ 3904
ita. 3904
Karasira 3903
aborozi 3903
akarere. 3903
buhanga 3903
tike 3903
ukunda. 3902
bavugako 3901
rwih@@ 3901
uke, 3900
Kit@@ 3899
bimeze. 3899
rutanga 3899
y’ikipe 3899
abonaga 3898
76 3897
oshye 3897
tuny@@ 3897
yanduye 3897
Hamwe 3896
matora. 3896
bumve 3895
dufat@@ 3895
is. 3895
ishij@@ 3895
sinari 3895
Bikaba 3894
Mes@@ 3894
amamare 3894
Byabagamba 3893
Ingoro 3893
gukund@@ 3893
inkuba 3893
izahura 3893
umwihariko, 3893
w’Itorero 3893
bwoba 3891
muto. 3891
Africa. 3890
y’ibanze 3890
gupfa, 3889
yatinze 3889
azir@@ 3888
by’umutekano 3888
Isange 3887
ashyiriweho 3887
y’indege 3886
ibi. 3885
mahano 3885
Company 3882
apuro 3882
nyinsh@@ 3882
yamagana 3882
Kabanda 3881
berek@@ 3881
mupolisi 3881
Byukusenge 3880
Gishinzwe 3880
amahoteli 3880
ik 3880
19:@@ 3879
Mass@@ 3879
arur@@ 3879
wemo. 3879
yasanzwe 3879
agaragaramo 3878
bigaragara, 3878
ibagiza 3878
ihung@@ 3878
kitaz@@ 3878
Meghan 3877
ashobore 3877
umiye 3877
umushy@@ 3877
yatashye 3877
Ethiop@@ 3876
boherejwe 3876
gusinyisha 3876
indwi. 3876
kutamenya 3876
Cha 3875
bwanyu 3875
zivuye 3875
O) 3874
Saleh 3874
74 3873
Club@@ 3873
erwaho. 3873
imba, 3873
urizwa 3873
Bayingana 3872
aramo, 3872
arwanda 3872
bashinj@@ 3872
Jer@@ 3871
Murambi 3871
Stars 3871
Yatanze 3871
kwemerera 3871
miss@@ 3871
murandasi 3871
130 3870
Wenger 3870
with 3870
84 3869
gari 3869
isabwa 3869
Nyaruguru, 3868
y’Iburengerazuba 3867
ezwaho 3866
Human 3865
byang@@ 3865
ibihereranye 3864
kuzagira 3864
n’abatari 3864
Gasasira 3863
Kwiy@@ 3863
imizigo 3863
yafataga 3863
pe! 3862
y’abat@@ 3861
Daniyeli 3860
n'ingaruka 3860
n'ubushobozi 3860
babim@@ 3859
bwije 3859
ishyire 3859
ubutaka, 3859
UMBA 3858
cyatang@@ 3858
cy’iyi 3858
ubuyobozi, 3858
Gutanga 3857
imerere 3857
itabire 3857
kwiga. 3857
nk’umwe 3857
olon@@ 3857
atatu. 3856
bataye 3856
Dam@@ 3855
Rouge 3855
UMB@@ 3855
abihamijwe 3855
akwereka 3855
iterana 3855
Abarabu 3854
Art@@ 3854
ekere 3854
ishyura. 3854
ubushomeri 3854
(2@@ 3853
badah@@ 3853
kubatera 3853
Hot@@ 3852
Jyewe 3852
aremeza 3852
dutangira 3852
habeho 3852
ENGE 3851
ball@@ 3851
ezeranyije 3850
ategek@@ 3849
bakoreraga 3849
Kiir 3848
anyijwe, 3848
rukorera 3848
Can@@ 3847
Sor@@ 3847
by'u 3847
n’amakuru 3846
par. 3846
Ababiligi 3845
Tch@@ 3845
vug@@ 3845
gukubitwa 3844
os, 3844
w’uwo 3844
nsanganyamatsiko 3843
w'abibumbye 3843
yabaz@@ 3843
31, 3842
abyo, 3842
hakubiyemo 3842
waturutse 3842
w’Itegeko 3842
Lady 3840
RUHAME 3840
dini 3840
yegereye 3840
abamur@@ 3839
kwirengagiza 3839
oboka, 3839
Imbaraga 3838
n’umukozi 3838
kudah@@ 3837
kurega 3837
ric 3837
yeho, 3837
n'is@@ 3836
or, 3836
1/2 3835
UZA 3835
ereka. 3834
magara 3834
Unit@@ 3833
bamujyana 3833
bucye 3833
indaga 3833
nzu. 3833
angabo 3832
ukunda, 3832
Sonia 3831
wad@@ 3831
Gukoresha 3830
tugire 3830
ububiko 3830
batubwiye 3829
bwiganze 3829
enyeshe 3829
Gasore 3828
ongerez@@ 3828
turay@@ 3828
Rwagasana 3827
imibabaro 3827
kuvugwaho 3827
yangiza 3827
yibye 3827
akabasha 3826
akemeza 3826
bashima 3826
etswe 3826
ex 3826
y’ubutabera 3826
n'iya 3825
tubone 3825
ushyiraho 3825
SSP 3824
atashye 3824
bw’uyu 3824
dukwiriye 3824
n’inkumi 3824
zihari 3824
guturuka 3823
tuganira 3823
w’icyamamare 3823
ACY@@ 3822
Ec@@ 3822
Yo@@ 3822
Ziheruka 3822
ikoresha. 3822
Gakenke, 3821
malariya 3821
ureke 3821
zaz@@ 3821
IMO 3820
anika 3820
ekamutwe 3820
kereka 3820
yamba@@ 3820
muribo 3819
“Imana 3819
,” 3818
CM@@ 3818
Ifoto: 3818
akuye 3818
bushy@@ 3817
Ferdinand 3816
Ku@@ 3816
Wilson 3816
Bul@@ 3815
Dusabe 3815
UMUH@@ 3815
Umuganda 3814
ijyamo 3814
idikanya 3813
rw'igihugu 3813
y’abakinnyi 3813
1-0. 3812
Umuhanuzi 3812
ibint@@ 3812
bw’umwuka. 3811
aze, 3810
iligi 3810
Kagali 3809
ishyigikiye 3809
bisoza 3808
enza. 3808
n’ibihe 3808
tureba 3808
ibanze, 3807
igisha, 3807
irar@@ 3807
CE@@ 3806
mill@@ 3806
sup@@ 3806
yuje 3806
b’ingeri 3805
nk’iki 3805
utak@@ 3805
Ikibabaje 3804
engera, 3804
innyi, 3804
1990, 3803
hatangwa 3803
Karake 3802
imburiye 3802
08:@@ 3801
Kwirinda 3801
Radi@@ 3801
amubuza 3801
bakundana. 3801
ntibivuze 3801
rw’abakinnyi 3801
hatangijwe 3800
baraza 3799
350 3798
cy’ubuzima 3798
ibyapa 3798
myinshi. 3798
tu 3798
/2020 3797
ifuzi 3797
ry'igihugu 3797
uranishwa 3797
yisumbuye. 3797
Salax 3796
abats@@ 3796
enyekana, 3796
je@@ 3796
kantu 3796
(10@@ 3795
Tuyishime 3795
ashimiye 3795
obye 3795
ukuy@@ 3795
umunya-@@ 3795
zikurikira 3794
biyongera 3793
http://www.@@ 3793
ikwiriye 3793
itandukanye, 3793
yiyahuye 3793
KI@@ 3792
Kera 3792
engera. 3792
Abd@@ 3791
abagabo, 3791
amuteye 3791
1/4 3790
anirije 3790
eshya, 3790
ibitera 3790
avukiye 3789
kwemerwa 3789
barash@@ 3788
yavuk@@ 3788
afungurwa 3787
ewemo 3787
mitekerereze 3787
butangaza 3786
koko? 3786
sima 3786
bacitse 3785
uriyeho 3785
wacyo 3785
89@@ 3784
ation, 3784
imihati 3784
160 3783
Abikorera 3783
Sierra 3783
byagombaga 3783
izanye 3783
nyaburanga 3783
ishora 3782
kugumana 3782
ndacy@@ 3782
n’abahungu 3782
ruriya 3782
Eliya 3781
Kil@@ 3781
abuk@@ 3781
barara 3781
irangiza 3781
turushaho 3781
y'amavuko, 3781
ashidikanya 3780
n’akarere 3780
1). 3779
ibirango 3779
baduk@@ 3778
bukomeye. 3778
busitani 3778
ond 3778
Gahima 3777
a( 3777
bikw@@ 3777
oromo 3777
s), 3777
Myugariro 3776
Nderabuzima 3776
asu 3776
ntoya 3776
simb@@ 3776
Luis 3775
Mt 3775
Str@@ 3775
amu, 3775
n’abam@@ 3775
bizabera 3774
cal@@ 3774
omo, 3774
uzure 3774
yabanj@@ 3774
anga,@@ 3773
ashoboka, 3773
1999 3772
Ashobora 3772
ogo. 3772
Commun@@ 3771
Sl@@ 3771
agaza 3771
biriho 3771
ihenze 3771
ud 3771
Inc@@ 3770
Nyag@@ 3770
dutegereje 3770
ishyikir@@ 3770
ambik@@ 3769
bitangaza 3769
cyanditswe 3769
n'imibereho 3769
ingito 3768
tukajya 3768
y’imodoka 3768
z’amanywa 3768
Kol@@ 3767
Remera. 3767
nama. 3767
umusar@@ 3767
ziriho 3767
Mme 3766
enyeshejwe 3766
ushying@@ 3766
ziturutse 3766
Gaulle 3765
byarabaye 3763
etsa 3763
iduh@@ 3763
OL 3762
Urwanda 3762
akuriye 3762
ibyishim@@ 3762
irihe 3762
matariki 3762
Andr@@ 3761
imurikagurisha 3761
kumwica 3761
misoro 3761
twagize 3761
ubushobozi. 3761
wo. 3761
nzajya 3760
Mv@@ 3759
aragenda 3759
n’Inteko 3759
RNC, 3758
Uwineza 3758
coronavirus. 3758
Lond@@ 3757
amwa 3757
ashinj@@ 3757
azan@@ 3757
n’ay’@@ 3757
200. 3756
gihombo 3756
ibirenze 3756
azatangira 3755
bip@@ 3755
Mand@@ 3754
y'amatora 3754
Katauti 3753
bazaza 3752
ibyatsi 3752
ihumure 3752
ubaze 3752
100, 3751
aco 3751
mpamvu, 3751
kuhagera 3750
uhawe 3750
w'Afurika 3750
wafat@@ 3750
Isomo 3749
Youtube 3749
ambiwe 3749
bikorohera 3749
odoka 3748
otora 3748
inya. 3747
iriki 3747
neza,@@ 3747
uwaba 3747
bibah@@ 3746
tukiri 3746
Adeline 3745
ars 3745
guhungira 3745
alo 3744
ndakw@@ 3744
n’ab’@@ 3744
Aban@@ 3743
UNDI 3743
ike, 3743
ikorewe 3743
n'izindi. 3743
zabyo 3743
W'@@ 3742
ibyem@@ 3742
Sw@@ 3741
o' 3741
FPR@@ 3740
IR 3740
Mr@@ 3739
batunze 3739
by’ikoranabuhanga 3739
ogora 3739
40. 3738
ABAG@@ 3738
Badege 3738
Harry 3738
ICC 3737
UMUSEKE 3737
n'ubwiyunge 3737
utah@@ 3737
yiyemeza 3737
Kiy@@ 3736
[...]
